{
  "version": "1.0",
  "truncation": null,
  "padding": null,
  "added_tokens": [
    {
      "id": 0,
      "content": "[UNK]",
      "single_word": false,
      "lstrip": false,
      "rstrip": false,
      "normalized": false,
      "special": true
    },
    {
      "id": 1,
      "content": "[CLS]",
      "single_word": false,
      "lstrip": false,
      "rstrip": false,
      "normalized": false,
      "special": true
    },
    {
      "id": 2,
      "content": "[SEP]",
      "single_word": false,
      "lstrip": false,
      "rstrip": false,
      "normalized": false,
      "special": true
    },
    {
      "id": 3,
      "content": "[PAD]",
      "single_word": false,
      "lstrip": false,
      "rstrip": false,
      "normalized": false,
      "special": true
    },
    {
      "id": 4,
      "content": "[MASK]",
      "single_word": false,
      "lstrip": false,
      "rstrip": false,
      "normalized": false,
      "special": true
    }
  ],
  "normalizer": null,
  "pre_tokenizer": {
    "type": "UnicodeScripts"
  },
  "post_processor": null,
  "decoder": null,
  "model": {
    "type": "BPE",
    "dropout": null,
    "unk_token": "[UNK]",
    "continuing_subword_prefix": null,
    "end_of_word_suffix": null,
    "fuse_unk": false,
    "byte_fallback": false,
    "ignore_merges": false,
    "vocab": {
      "[UNK]": 0,
      "[CLS]": 1,
      "[SEP]": 2,
      "[PAD]": 3,
      "[MASK]": 4,
      "\b": 5,
      "\n": 6,
      " ": 7,
      "!": 8,
      "\"": 9,
      "#": 10,
      "%": 11,
      "'": 12,
      "(": 13,
      ")": 14,
      "*": 15,
      "+": 16,
      ",": 17,
      "-": 18,
      ".": 19,
      "/": 20,
      "0": 21,
      "1": 22,
      "2": 23,
      "3": 24,
      "4": 25,
      "5": 26,
      "6": 27,
      "7": 28,
      "8": 29,
      "9": 30,
      ":": 31,
      ";": 32,
      "<": 33,
      "=": 34,
      ">": 35,
      "?": 36,
      "@": 37,
      "A": 38,
      "B": 39,
      "C": 40,
      "D": 41,
      "E": 42,
      "F": 43,
      "G": 44,
      "H": 45,
      "I": 46,
      "K": 47,
      "L": 48,
      "M": 49,
      "N": 50,
      "O": 51,
      "P": 52,
      "Q": 53,
      "R": 54,
      "S": 55,
      "T": 56,
      "U": 57,
      "V": 58,
      "W": 59,
      "Y": 60,
      "[": 61,
      "]": 62,
      "^": 63,
      "_": 64,
      "a": 65,
      "b": 66,
      "c": 67,
      "d": 68,
      "e": 69,
      "f": 70,
      "g": 71,
      "h": 72,
      "i": 73,
      "j": 74,
      "k": 75,
      "l": 76,
      "m": 77,
      "n": 78,
      "o": 79,
      "p": 80,
      "q": 81,
      "r": 82,
      "s": 83,
      "t": 84,
      "u": 85,
      "v": 86,
      "w": 87,
      "x": 88,
      "y": 89,
      "z": 90,
      "|": 91,
      "~": 92,
      "·": 93,
      "÷": 94,
      " ": 95,
      " ": 96,
      "‍": 97,
      "—": 98,
      "“": 99,
      "”": 100,
      "…": 101,
      "‬": 102,
      "‭": 103,
      "⊙": 104,
      "　": 105,
      "、": 106,
      "。": 107,
      "〈": 108,
      "〉": 109,
      "《": 110,
      "【": 111,
      "】": 112,
      "一": 113,
      "七": 114,
      "万": 115,
      "三": 116,
      "上": 117,
      "下": 118,
      "不": 119,
      "与": 120,
      "专": 121,
      "且": 122,
      "业": 123,
      "东": 124,
      "丢": 125,
      "两": 126,
      "丨": 127,
      "个": 128,
      "丫": 129,
      "中": 130,
      "临": 131,
      "丶": 132,
      "丹": 133,
      "为": 134,
      "主": 135,
      "举": 136,
      "乃": 137,
      "久": 138,
      "么": 139,
      "义": 140,
      "之": 141,
      "乍": 142,
      "乐": 143,
      "九": 144,
      "也": 145,
      "习": 146,
      "乡": 147,
      "书": 148,
      "买": 149,
      "乱": 150,
      "了": 151,
      "予": 152,
      "事": 153,
      "二": 154,
      "于": 155,
      "亏": 156,
      "云": 157,
      "互": 158,
      "五": 159,
      "亚": 160,
      "些": 161,
      "亡": 162,
      "交": 163,
      "产": 164,
      "享": 165,
      "京": 166,
      "亲": 167,
      "人": 168,
      "什": 169,
      "仅": 170,
      "今": 171,
      "介": 172,
      "仍": 173,
      "从": 174,
      "仓": 175,
      "他": 176,
      "付": 177,
      "代": 178,
      "令": 179,
      "以": 180,
      "仧": 181,
      "们": 182,
      "件": 183,
      "价": 184,
      "任": 185,
      "份": 186,
      "企": 187,
      "休": 188,
      "众": 189,
      "优": 190,
      "伙": 191,
      "会": 192,
      "伟": 193,
      "传": 194,
      "伤": 195,
      "伦": 196,
      "估": 197,
      "伴": 198,
      "伸": 199,
      "似": 200,
      "但": 201,
      "位": 202,
      "低": 203,
      "住": 204,
      "体": 205,
      "何": 206,
      "余": 207,
      "作": 208,
      "你": 209,
      "佣": 210,
      "使": 211,
      "侄": 212,
      "來": 213,
      "例": 214,
      "供": 215,
      "依": 216,
      "侧": 217,
      "侯": 218,
      "便": 219,
      "係": 220,
      "俄": 221,
      "保": 222,
      "信": 223,
      "俩": 224,
      "修": 225,
      "俱": 226,
      "俺": 227,
      "個": 228,
      "倍": 229,
      "們": 230,
      "倒": 231,
      "候": 232,
      "借": 233,
      "债": 234,
      "值": 235,
      "假": 236,
      "偏": 237,
      "做": 238,
      "停": 239,
      "偶": 240,
      "偷": 241,
      "偿": 242,
      "傍": 243,
      "储": 244,
      "催": 245,
      "傲": 246,
      "傻": 247,
      "像": 248,
      "優": 249,
      "儿": 250,
      "允": 251,
      "元": 252,
      "充": 253,
      "先": 254,
      "光": 255,
      "克": 256,
      "免": 257,
      "兑": 258,
      "入": 259,
      "內": 260,
      "全": 261,
      "兩": 262,
      "八": 263,
      "公": 264,
      "六": 265,
      "共": 266,
      "关": 267,
      "兴": 268,
      "其": 269,
      "具": 270,
      "内": 271,
      "册": 272,
      "再": 273,
      "写": 274,
      "军": 275,
      "农": 276,
      "冲": 277,
      "决": 278,
      "况": 279,
      "冻": 280,
      "净": 281,
      "准": 282,
      "凌": 283,
      "减": 284,
      "几": 285,
      "凭": 286,
      "出": 287,
      "击": 288,
      "函": 289,
      "分": 290,
      "切": 291,
      "划": 292,
      "列": 293,
      "则": 294,
      "刚": 295,
      "创": 296,
      "初": 297,
      "删": 298,
      "判": 299,
      "利": 300,
      "别": 301,
      "到": 302,
      "制": 303,
      "刷": 304,
      "券": 305,
      "刻": 306,
      "前": 307,
      "剛": 308,
      "剩": 309,
      "力": 310,
      "办": 311,
      "功": 312,
      "加": 313,
      "务": 314,
      "劣": 315,
      "动": 316,
      "助": 317,
      "努": 318,
      "劵": 319,
      "势": 320,
      "勇": 321,
      "動": 322,
      "包": 323,
      "化": 324,
      "北": 325,
      "匹": 326,
      "区": 327,
      "医": 328,
      "十": 329,
      "千": 330,
      "升": 331,
      "午": 332,
      "半": 333,
      "华": 334,
      "协": 335,
      "卓": 336,
      "单": 337,
      "卖": 338,
      "南": 339,
      "博": 340,
      "占": 341,
      "卡": 342,
      "卫": 343,
      "印": 344,
      "危": 345,
      "即": 346,
      "却": 347,
      "卷": 348,
      "卸": 349,
      "历": 350,
      "厉": 351,
      "压": 352,
      "厘": 353,
      "厚": 354,
      "原": 355,
      "去": 356,
      "参": 357,
      "又": 358,
      "及": 359,
      "友": 360,
      "双": 361,
      "反": 362,
      "发": 363,
      "取": 364,
      "受": 365,
      "变": 366,
      "口": 367,
      "古": 368,
      "句": 369,
      "另": 370,
      "叧": 371,
      "只": 372,
      "叫": 373,
      "可": 374,
      "台": 375,
      "史": 376,
      "右": 377,
      "号": 378,
      "司": 379,
      "叽": 380,
      "吃": 381,
      "各": 382,
      "合": 383,
      "吋": 384,
      "同": 385,
      "名": 386,
      "后": 387,
      "向": 388,
      "吖": 389,
      "吗": 390,
      "吞": 391,
      "否": 392,
      "吧": 393,
      "含": 394,
      "听": 395,
      "启": 396,
      "吱": 397,
      "吹": 398,
      "呀": 399,
      "呆": 400,
      "告": 401,
      "呐": 402,
      "呗": 403,
      "员": 404,
      "呢": 405,
      "呦": 406,
      "周": 407,
      "呲": 408,
      "味": 409,
      "呵": 410,
      "咁": 411,
      "咋": 412,
      "和": 413,
      "咒": 414,
      "咙": 415,
      "咧": 416,
      "咨": 417,
      "咩": 418,
      "咯": 419,
      "咱": 420,
      "品": 421,
      "哇": 422,
      "哈": 423,
      "响": 424,
      "哎": 425,
      "哒": 426,
      "哟": 427,
      "哥": 428,
      "哦": 429,
      "哪": 430,
      "哭": 431,
      "唉": 432,
      "唔": 433,
      "售": 434,
      "唯": 435,
      "商": 436,
      "啊": 437,
      "問": 438,
      "啥": 439,
      "啦": 440,
      "喃": 441,
      "善": 442,
      "喊": 443,
      "喔": 444,
      "喜": 445,
      "單": 446,
      "嗎": 447,
      "嗨": 448,
      "嗯": 449,
      "嘉": 450,
      "嘎": 451,
      "嘛": 452,
      "嘞": 453,
      "嘴": 454,
      "噢": 455,
      "器": 456,
      "嚒": 457,
      "四": 458,
      "回": 459,
      "因": 460,
      "团": 461,
      "困": 462,
      "围": 463,
      "固": 464,
      "国": 465,
      "图": 466,
      "圈": 467,
      "國": 468,
      "圣": 469,
      "在": 470,
      "地": 471,
      "圳": 472,
      "场": 473,
      "圾": 474,
      "址": 475,
      "均": 476,
      "坏": 477,
      "坐": 478,
      "坑": 479,
      "块": 480,
      "坚": 481,
      "坞": 482,
      "垃": 483,
      "型": 484,
      "域": 485,
      "埠": 486,
      "埭": 487,
      "培": 488,
      "基": 489,
      "堤": 490,
      "塊": 491,
      "填": 492,
      "增": 493,
      "壋": 494,
      "士": 495,
      "声": 496,
      "壳": 497,
      "处": 498,
      "备": 499,
      "复": 500,
      "夏": 501,
      "夕": 502,
      "外": 503,
      "多": 504,
      "夜": 505,
      "够": 506,
      "大": 507,
      "天": 508,
      "太": 509,
      "夫": 510,
      "失": 511,
      "头": 512,
      "夸": 513,
      "奇": 514,
      "奈": 515,
      "奖": 516,
      "套": 517,
      "她": 518,
      "好": 519,
      "如": 520,
      "妈": 521,
      "妹": 522,
      "始": 523,
      "姐": 524,
      "姑": 525,
      "姓": 526,
      "委": 527,
      "威": 528,
      "娘": 529,
      "娟": 530,
      "娶": 531,
      "婆": 532,
      "嫖": 533,
      "子": 534,
      "字": 535,
      "存": 536,
      "季": 537,
      "学": 538,
      "孩": 539,
      "宁": 540,
      "它": 541,
      "守": 542,
      "安": 543,
      "完": 544,
      "宗": 545,
      "官": 546,
      "定": 547,
      "宝": 548,
      "实": 549,
      "审": 550,
      "客": 551,
      "害": 552,
      "家": 553,
      "容": 554,
      "宽": 555,
      "宾": 556,
      "寄": 557,
      "密": 558,
      "富": 559,
      "察": 560,
      "对": 561,
      "导": 562,
      "寿": 563,
      "封": 564,
      "将": 565,
      "小": 566,
      "少": 567,
      "尔": 568,
      "尚": 569,
      "尝": 570,
      "尬": 571,
      "就": 572,
      "尴": 573,
      "尼": 574,
      "尽": 575,
      "尾": 576,
      "局": 577,
      "屁": 578,
      "层": 579,
      "居": 580,
      "届": 581,
      "屋": 582,
      "屏": 583,
      "展": 584,
      "属": 585,
      "履": 586,
      "山": 587,
      "岀": 588,
      "岁": 589,
      "岂": 590,
      "岛": 591,
      "州": 592,
      "工": 593,
      "左": 594,
      "巧": 595,
      "差": 596,
      "己": 597,
      "已": 598,
      "巴": 599,
      "巻": 600,
      "币": 601,
      "市": 602,
      "布": 603,
      "师": 604,
      "希": 605,
      "帐": 606,
      "带": 607,
      "席": 608,
      "帮": 609,
      "帳": 610,
      "常": 611,
      "幅": 612,
      "干": 613,
      "平": 614,
      "年": 615,
      "并": 616,
      "幽": 617,
      "幾": 618,
      "广": 619,
      "庆": 620,
      "序": 621,
      "应": 622,
      "底": 623,
      "店": 624,
      "府": 625,
      "废": 626,
      "度": 627,
      "座": 628,
      "延": 629,
      "建": 630,
      "开": 631,
      "异": 632,
      "弄": 633,
      "式": 634,
      "弟": 635,
      "张": 636,
      "弧": 637,
      "弹": 638,
      "强": 639,
      "归": 640,
      "当": 641,
      "录": 642,
      "彩": 643,
      "影": 644,
      "彻": 645,
      "往": 646,
      "征": 647,
      "径": 648,
      "待": 649,
      "很": 650,
      "律": 651,
      "徒": 652,
      "得": 653,
      "從": 654,
      "循": 655,
      "微": 656,
      "徽": 657,
      "心": 658,
      "必": 659,
      "志": 660,
      "忘": 661,
      "忙": 662,
      "快": 663,
      "念": 664,
      "忽": 665,
      "态": 666,
      "怎": 667,
      "怒": 668,
      "怕": 669,
      "怜": 670,
      "思": 671,
      "急": 672,
      "性": 673,
      "怪": 674,
      "总": 675,
      "恢": 676,
      "恩": 677,
      "恭": 678,
      "息": 679,
      "恳": 680,
      "恶": 681,
      "悉": 682,
      "悔": 683,
      "悠": 684,
      "悦": 685,
      "您": 686,
      "情": 687,
      "惜": 688,
      "惠": 689,
      "想": 690,
      "愈": 691,
      "意": 692,
      "感": 693,
      "愿": 694,
      "慢": 695,
      "憾": 696,
      "懂": 697,
      "應": 698,
      "懵": 699,
      "戏": 700,
      "成": 701,
      "我": 702,
      "或": 703,
      "截": 704,
      "戴": 705,
      "戶": 706,
      "户": 707,
      "房": 708,
      "所": 709,
      "手": 710,
      "才": 711,
      "打": 712,
      "托": 713,
      "扣": 714,
      "执": 715,
      "扩": 716,
      "扫": 717,
      "扰": 718,
      "批": 719,
      "找": 720,
      "承": 721,
      "技": 722,
      "把": 723,
      "抓": 724,
      "投": 725,
      "折": 726,
      "抠": 727,
      "抢": 728,
      "护": 729,
      "报": 730,
      "抬": 731,
      "抱": 732,
      "抵": 733,
      "押": 734,
      "抽": 735,
      "担": 736,
      "拆": 737,
      "拉": 738,
      "拍": 739,
      "拒": 740,
      "拖": 741,
      "招": 742,
      "拜": 743,
      "拟": 744,
      "拥": 745,
      "拦": 746,
      "拨": 747,
      "择": 748,
      "括": 749,
      "拿": 750,
      "持": 751,
      "挂": 752,
      "指": 753,
      "按": 754,
      "挑": 755,
      "挖": 756,
      "挷": 757,
      "挺": 758,
      "捆": 759,
      "捉": 760,
      "捏": 761,
      "捐": 762,
      "损": 763,
      "换": 764,
      "捣": 765,
      "据": 766,
      "捷": 767,
      "捿": 768,
      "授": 769,
      "掉": 770,
      "排": 771,
      "掘": 772,
      "探": 773,
      "接": 774,
      "控": 775,
      "推": 776,
      "描": 777,
      "提": 778,
      "揭": 779,
      "援": 780,
      "搜": 781,
      "搞": 782,
      "搬": 783,
      "携": 784,
      "摄": 785,
      "摇": 786,
      "摊": 787,
      "撇": 788,
      "撒": 789,
      "撞": 790,
      "撤": 791,
      "播": 792,
      "撸": 793,
      "操": 794,
      "擦": 795,
      "攀": 796,
      "支": 797,
      "收": 798,
      "改": 799,
      "放": 800,
      "政": 801,
      "故": 802,
      "效": 803,
      "敉": 804,
      "救": 805,
      "敗": 806,
      "教": 807,
      "敢": 808,
      "散": 809,
      "数": 810,
      "整": 811,
      "文": 812,
      "料": 813,
      "斤": 814,
      "断": 815,
      "斯": 816,
      "新": 817,
      "方": 818,
      "旅": 819,
      "旗": 820,
      "无": 821,
      "既": 822,
      "日": 823,
      "旦": 824,
      "旧": 825,
      "早": 826,
      "旬": 827,
      "时": 828,
      "明": 829,
      "易": 830,
      "星": 831,
      "映": 832,
      "春": 833,
      "昨": 834,
      "是": 835,
      "昵": 836,
      "显": 837,
      "時": 838,
      "晒": 839,
      "晕": 840,
      "晚": 841,
      "晨": 842,
      "普": 843,
      "智": 844,
      "暂": 845,
      "曰": 846,
      "更": 847,
      "曾": 848,
      "替": 849,
      "最": 850,
      "會": 851,
      "月": 852,
      "有": 853,
      "朋": 854,
      "服": 855,
      "望": 856,
      "期": 857,
      "木": 858,
      "未": 859,
      "末": 860,
      "本": 861,
      "术": 862,
      "朵": 863,
      "机": 864,
      "杀": 865,
      "杂": 866,
      "权": 867,
      "材": 868,
      "村": 869,
      "束": 870,
      "条": 871,
      "来": 872,
      "松": 873,
      "板": 874,
      "极": 875,
      "构": 876,
      "果": 877,
      "架": 878,
      "某": 879,
      "柜": 880,
      "查": 881,
      "标": 882,
      "栏": 883,
      "校": 884,
      "样": 885,
      "核": 886,
      "根": 887,
      "格": 888,
      "案": 889,
      "桶": 890,
      "梆": 891,
      "條": 892,
      "梯": 893,
      "检": 894,
      "棒": 895,
      "楚": 896,
      "業": 897,
      "概": 898,
      "榜": 899,
      "槛": 900,
      "模": 901,
      "樣": 902,
      "機": 903,
      "欠": 904,
      "次": 905,
      "欢": 906,
      "欹": 907,
      "欺": 908,
      "款": 909,
      "歉": 910,
      "歌": 911,
      "止": 912,
      "正": 913,
      "此": 914,
      "步": 915,
      "歹": 916,
      "死": 917,
      "殊": 918,
      "段": 919,
      "母": 920,
      "每": 921,
      "毒": 922,
      "比": 923,
      "毕": 924,
      "毛": 925,
      "民": 926,
      "气": 927,
      "水": 928,
      "永": 929,
      "求": 930,
      "汇": 931,
      "汗": 932,
      "江": 933,
      "決": 934,
      "沒": 935,
      "沙": 936,
      "沟": 937,
      "没": 938,
      "河": 939,
      "油": 940,
      "泄": 941,
      "法": 942,
      "注": 943,
      "泪": 944,
      "洗": 945,
      "洛": 946,
      "活": 947,
      "派": 948,
      "流": 949,
      "测": 950,
      "济": 951,
      "浦": 952,
      "浮": 953,
      "海": 954,
      "消": 955,
      "润": 956,
      "涨": 957,
      "淘": 958,
      "深": 959,
      "混": 960,
      "添": 961,
      "清": 962,
      "渠": 963,
      "港": 964,
      "游": 965,
      "湘": 966,
      "湾": 967,
      "源": 968,
      "滚": 969,
      "滞": 970,
      "满": 971,
      "滴": 972,
      "漏": 973,
      "激": 974,
      "灣": 975,
      "灭": 976,
      "灰": 977,
      "炒": 978,
      "炖": 979,
      "点": 980,
      "為": 981,
      "烈": 982,
      "烦": 983,
      "热": 984,
      "然": 985,
      "照": 986,
      "熟": 987,
      "燃": 988,
      "爱": 989,
      "父": 990,
      "爷": 991,
      "爸": 992,
      "片": 993,
      "版": 994,
      "牙": 995,
      "牡": 996,
      "物": 997,
      "牵": 998,
      "特": 999,
      "状": 1000,
      "狂": 1001,
      "猜": 1002,
      "猫": 1003,
      "献": 1004,
      "猴": 1005,
      "獲": 1006,
      "率": 1007,
      "玛": 1008,
      "玩": 1009,
      "环": 1010,
      "现": 1011,
      "珍": 1012,
      "珠": 1013,
      "班": 1014,
      "現": 1015,
      "球": 1016,
      "理": 1017,
      "甚": 1018,
      "生": 1019,
      "用": 1020,
      "由": 1021,
      "申": 1022,
      "电": 1023,
      "男": 1024,
      "画": 1025,
      "畅": 1026,
      "界": 1027,
      "留": 1028,
      "略": 1029,
      "疏": 1030,
      "疑": 1031,
      "病": 1032,
      "痛": 1033,
      "痹": 1034,
      "登": 1035,
      "發": 1036,
      "白": 1037,
      "百": 1038,
      "的": 1039,
      "皆": 1040,
      "皮": 1041,
      "盈": 1042,
      "益": 1043,
      "监": 1044,
      "盖": 1045,
      "盗": 1046,
      "盜": 1047,
      "目": 1048,
      "直": 1049,
      "相": 1050,
      "盾": 1051,
      "眉": 1052,
      "看": 1053,
      "真": 1054,
      "眼": 1055,
      "眾": 1056,
      "着": 1057,
      "睡": 1058,
      "瞎": 1059,
      "矛": 1060,
      "矢": 1061,
      "知": 1062,
      "短": 1063,
      "码": 1064,
      "破": 1065,
      "确": 1066,
      "碰": 1067,
      "碼": 1068,
      "磁": 1069,
      "磨": 1070,
      "示": 1071,
      "礼": 1072,
      "社": 1073,
      "神": 1074,
      "祥": 1075,
      "票": 1076,
      "福": 1077,
      "离": 1078,
      "秀": 1079,
      "私": 1080,
      "秋": 1081,
      "种": 1082,
      "科": 1083,
      "秒": 1084,
      "秘": 1085,
      "租": 1086,
      "积": 1087,
      "称": 1088,
      "移": 1089,
      "程": 1090,
      "稍": 1091,
      "稳": 1092,
      "空": 1093,
      "穿": 1094,
      "突": 1095,
      "窗": 1096,
      "立": 1097,
      "站": 1098,
      "竟": 1099,
      "章": 1100,
      "端": 1101,
      "笑": 1102,
      "笔": 1103,
      "符": 1104,
      "笫": 1105,
      "第": 1106,
      "筆": 1107,
      "等": 1108,
      "答": 1109,
      "策": 1110,
      "筹": 1111,
      "签": 1112,
      "简": 1113,
      "算": 1114,
      "管": 1115,
      "箱": 1116,
      "米": 1117,
      "类": 1118,
      "粒": 1119,
      "糕": 1120,
      "糟": 1121,
      "系": 1122,
      "紅": 1123,
      "素": 1124,
      "索": 1125,
      "紧": 1126,
      "累": 1127,
      "紹": 1128,
      "結": 1129,
      "給": 1130,
      "統": 1131,
      "綁": 1132,
      "經": 1133,
      "繁": 1134,
      "繼": 1135,
      "續": 1136,
      "红": 1137,
      "约": 1138,
      "级": 1139,
      "纪": 1140,
      "纳": 1141,
      "纵": 1142,
      "纸": 1143,
      "线": 1144,
      "细": 1145,
      "终": 1146,
      "绍": 1147,
      "经": 1148,
      "绑": 1149,
      "结": 1150,
      "给": 1151,
      "络": 1152,
      "绝": 1153,
      "统": 1154,
      "继": 1155,
      "绪": 1156,
      "续": 1157,
      "维": 1158,
      "综": 1159,
      "缓": 1160,
      "编": 1161,
      "缘": 1162,
      "缴": 1163,
      "缺": 1164,
      "罐": 1165,
      "网": 1166,
      "罗": 1167,
      "罚": 1168,
      "置": 1169,
      "罰": 1170,
      "署": 1171,
      "群": 1172,
      "老": 1173,
      "考": 1174,
      "者": 1175,
      "而": 1176,
      "耶": 1177,
      "耻": 1178,
      "耽": 1179,
      "聊": 1180,
      "职": 1181,
      "联": 1182,
      "聚": 1183,
      "股": 1184,
      "肯": 1185,
      "育": 1186,
      "胁": 1187,
      "胞": 1188,
      "胡": 1189,
      "能": 1190,
      "脉": 1191,
      "脑": 1192,
      "脸": 1193,
      "腻": 1194,
      "腾": 1195,
      "自": 1196,
      "至": 1197,
      "致": 1198,
      "舍": 1199,
      "般": 1200,
      "良": 1201,
      "色": 1202,
      "艹": 1203,
      "节": 1204,
      "芝": 1205,
      "芯": 1206,
      "花": 1207,
      "苏": 1208,
      "若": 1209,
      "苦": 1210,
      "英": 1211,
      "苹": 1212,
      "范": 1213,
      "茗": 1214,
      "草": 1215,
      "荐": 1216,
      "莞": 1217,
      "莪": 1218,
      "莫": 1219,
      "莱": 1220,
      "获": 1221,
      "菜": 1222,
      "营": 1223,
      "董": 1224,
      "蓄": 1225,
      "蔽": 1226,
      "薇": 1227,
      "薪": 1228,
      "虑": 1229,
      "虚": 1230,
      "號": 1231,
      "蚁": 1232,
      "蚂": 1233,
      "蚊": 1234,
      "蚌": 1235,
      "蛋": 1236,
      "蛮": 1237,
      "融": 1238,
      "行": 1239,
      "衡": 1240,
      "衣": 1241,
      "补": 1242,
      "表": 1243,
      "袋": 1244,
      "被": 1245,
      "装": 1246,
      "西": 1247,
      "要": 1248,
      "见": 1249,
      "规": 1250,
      "视": 1251,
      "览": 1252,
      "觉": 1253,
      "角": 1254,
      "解": 1255,
      "言": 1256,
      "計": 1257,
      "記": 1258,
      "証": 1259,
      "話": 1260,
      "誉": 1261,
      "誤": 1262,
      "誰": 1263,
      "請": 1264,
      "證": 1265,
      "警": 1266,
      "计": 1267,
      "订": 1268,
      "认": 1269,
      "让": 1270,
      "训": 1271,
      "议": 1272,
      "讯": 1273,
      "记": 1274,
      "讲": 1275,
      "许": 1276,
      "论": 1277,
      "设": 1278,
      "访": 1279,
      "证": 1280,
      "评": 1281,
      "识": 1282,
      "诈": 1283,
      "诉": 1284,
      "诏": 1285,
      "试": 1286,
      "话": 1287,
      "诞": 1288,
      "询": 1289,
      "该": 1290,
      "详": 1291,
      "语": 1292,
      "误": 1293,
      "说": 1294,
      "诶": 1295,
      "请": 1296,
      "读": 1297,
      "谁": 1298,
      "调": 1299,
      "谅": 1300,
      "谢": 1301,
      "谱": 1302,
      "象": 1303,
      "貌": 1304,
      "貨": 1305,
      "貸": 1306,
      "資": 1307,
      "賬": 1308,
      "负": 1309,
      "贡": 1310,
      "财": 1311,
      "责": 1312,
      "败": 1313,
      "账": 1314,
      "货": 1315,
      "质": 1316,
      "购": 1317,
      "贵": 1318,
      "贷": 1319,
      "费": 1320,
      "贻": 1321,
      "资": 1322,
      "赎": 1323,
      "赔": 1324,
      "赖": 1325,
      "赚": 1326,
      "赛": 1327,
      "赞": 1328,
      "赠": 1329,
      "赢": 1330,
      "走": 1331,
      "赶": 1332,
      "起": 1333,
      "超": 1334,
      "越": 1335,
      "趋": 1336,
      "足": 1337,
      "趴": 1338,
      "跟": 1339,
      "跨": 1340,
      "路": 1341,
      "跳": 1342,
      "身": 1343,
      "載": 1344,
      "车": 1345,
      "转": 1346,
      "轮": 1347,
      "软": 1348,
      "轻": 1349,
      "载": 1350,
      "较": 1351,
      "辆": 1352,
      "输": 1353,
      "辛": 1354,
      "辣": 1355,
      "辰": 1356,
      "边": 1357,
      "达": 1358,
      "迂": 1359,
      "过": 1360,
      "运": 1361,
      "近": 1362,
      "返": 1363,
      "还": 1364,
      "这": 1365,
      "进": 1366,
      "远": 1367,
      "违": 1368,
      "连": 1369,
      "迟": 1370,
      "述": 1371,
      "迷": 1372,
      "追": 1373,
      "退": 1374,
      "送": 1375,
      "适": 1376,
      "选": 1377,
      "透": 1378,
      "逐": 1379,
      "递": 1380,
      "途": 1381,
      "這": 1382,
      "通": 1383,
      "速": 1384,
      "造": 1385,
      "逼": 1386,
      "逾": 1387,
      "遍": 1388,
      "過": 1389,
      "道": 1390,
      "遗": 1391,
      "遥": 1392,
      "遨": 1393,
      "遲": 1394,
      "避": 1395,
      "邀": 1396,
      "還": 1397,
      "那": 1398,
      "邦": 1399,
      "邮": 1400,
      "部": 1401,
      "都": 1402,
      "配": 1403,
      "酷": 1404,
      "酸": 1405,
      "醉": 1406,
      "醒": 1407,
      "采": 1408,
      "释": 1409,
      "里": 1410,
      "重": 1411,
      "量": 1412,
      "金": 1413,
      "鉴": 1414,
      "銀": 1415,
      "銷": 1416,
      "錢": 1417,
      "錯": 1418,
      "针": 1419,
      "钟": 1420,
      "钮": 1421,
      "钰": 1422,
      "钱": 1423,
      "银": 1424,
      "铺": 1425,
      "链": 1426,
      "销": 1427,
      "锁": 1428,
      "错": 1429,
      "键": 1430,
      "镇": 1431,
      "镜": 1432,
      "长": 1433,
      "開": 1434,
      "間": 1435,
      "门": 1436,
      "闪": 1437,
      "闭": 1438,
      "问": 1439,
      "间": 1440,
      "闹": 1441,
      "阅": 1442,
      "队": 1443,
      "防": 1444,
      "阳": 1445,
      "阶": 1446,
      "阿": 1447,
      "际": 1448,
      "陆": 1449,
      "降": 1450,
      "限": 1451,
      "院": 1452,
      "除": 1453,
      "险": 1454,
      "陪": 1455,
      "随": 1456,
      "隐": 1457,
      "隔": 1458,
      "障": 1459,
      "隨": 1460,
      "难": 1461,
      "集": 1462,
      "零": 1463,
      "電": 1464,
      "需": 1465,
      "露": 1466,
      "青": 1467,
      "靓": 1468,
      "靖": 1469,
      "静": 1470,
      "非": 1471,
      "靠": 1472,
      "面": 1473,
      "音": 1474,
      "須": 1475,
      "頟": 1476,
      "額": 1477,
      "页": 1478,
      "项": 1479,
      "顺": 1480,
      "须": 1481,
      "顿": 1482,
      "预": 1483,
      "领": 1484,
      "频": 1485,
      "颗": 1486,
      "题": 1487,
      "颜": 1488,
      "额": 1489,
      "风": 1490,
      "飞": 1491,
      "餐": 1492,
      "饭": 1493,
      "饿": 1494,
      "馈": 1495,
      "首": 1496,
      "香": 1497,
      "馬": 1498,
      "驗": 1499,
      "马": 1500,
      "骂": 1501,
      "验": 1502,
      "骗": 1503,
      "骤": 1504,
      "骨": 1505,
      "高": 1506,
      "鬼": 1507,
      "鲁": 1508,
      "鳓": 1509,
      "鸟": 1510,
      "鸡": 1511,
      "鹅": 1512,
      "麻": 1513,
      "麼": 1514,
      "麽": 1515,
      "黄": 1516,
      "黑": 1517,
      "默": 1518,
      "鼎": 1519,
      "鼓": 1520,
      "齐": 1521,
      "龄": 1522,
      "": 1523,
      "": 1524,
      "️": 1525,
      "﻿": 1526,
      "！": 1527,
      "＂": 1528,
      "＃": 1529,
      "％": 1530,
      "（": 1531,
      "）": 1532,
      "＋": 1533,
      "，": 1534,
      "－": 1535,
      "．": 1536,
      "：": 1537,
      "；": 1538,
      "＝": 1539,
      "＞": 1540,
      "？": 1541,
      "～": 1542,
      "￥": 1543,
      ",1": 1544,
      ",0": 1545,
      ",1\n": 1546,
      ",0\n": 1547,
      "什么": 1548,
      "还款": 1549,
      "怎么": 1550,
      "为什么": 1551,
      "微粒": 1552,
      "可以": 1553,
      "微粒贷": 1554,
      "借款": 1555,
      "电话": 1556,
      "没有": 1557,
      "银行": 1558,
      "？,": 1559,
      "00": 1560,
      "额度": 1561,
      "你好": 1562,
      "多少": 1563,
      "申请": 1564,
      "利息": 1565,
      "？,0\n": 1566,
      "我的": 1567,
      "如何": 1568,
      "？,1\n": 1569,
      "时候": 1570,
      "不能": 1571,
      "开通": 1572,
      "手机": 1573,
      "银行卡": 1574,
      "什么时候": 1575,
      "微信": 1576,
      "提前": 1577,
      "失败": 1578,
      "多久": 1579,
      "贷款": 1580,
      "还清": 1581,
      "为什么我": 1582,
      "现在": 1583,
      "取消": 1584,
      "通过": 1585,
      "扣款": 1586,
      "个月": 1587,
      "审批": 1588,
      "号码": 1589,
      "不了": 1590,
      "绑定": 1591,
      "借钱": 1592,
      "显示": 1593,
      "今天": 1594,
      "审核": 1595,
      "确认": 1596,
      "还款日": 1597,
      "我想": 1598,
      "接到": 1599,
      "验证": 1600,
      "你们": 1601,
      "身份": 1602,
      "更改": 1603,
      "时间": 1604,
      "不是": 1605,
      "000": 1606,
      "打电话": 1607,
      "要求": 1608,
      "一般": 1609,
      "微众": 1610,
      "成功": 1611,
      "无法": 1612,
      "怎么办": 1613,
      "请问": 1614,
      "提前还款": 1615,
      "输入": 1616,
      "邀请": 1617,
      "一次": 1618,
      "满足": 1619,
      "信息": 1620,
      "需要": 1621,
      "如果": 1622,
      "证明": 1623,
      "不到": 1624,
      "逾期": 1625,
      "一天": 1626,
      "是多少": 1627,
      "错误": 1628,
      "一直": 1629,
      "这个": 1630,
      "验证码": 1631,
      "  ": 1632,
      "QQ": 1633,
      "到账": 1634,
      "微众银行": 1635,
      "给我": 1636,
      "还没": 1637,
      "结清": 1638,
      "没有微粒贷": 1639,
      "意思": 1640,
      "是什么": 1641,
      "怎样": 1642,
      "才能": 1643,
      "审批要求": 1644,
      "提示": 1645,
      "为什么我的": 1646,
      "钱包": 1647,
      "为何": 1648,
      "已经": 1649,
      "关闭": 1650,
      "还是": 1651,
      "一下": 1652,
      "电话确认": 1653,
      "提前还清": 1654,
      "结清证明": 1655,
      "信用": 1656,
      "评估": 1657,
      "借款后": 1658,
      "手机号": 1659,
      "自动": 1660,
      "没接到": 1661,
      "但是": 1662,
      "身份证": 1663,
      "综合": 1664,
      "不可以": 1665,
      "什么时候可以": 1666,
      "手机号码": 1667,
      "使用": 1668,
      "几天": 1669,
      "未通过": 1670,
      "借了": 1671,
      "登录": 1672,
      "客服": 1673,
      "何时": 1674,
      "还款失败": 1675,
      "是不是": 1676,
      "的银行卡": 1677,
      "收到": 1678,
      "10": 1679,
      "密码": 1680,
      "还没有": 1681,
      "功能": 1682,
      "有微粒贷": 1683,
      "一个月": 1684,
      "我要": 1685,
      "未满足": 1686,
      "之前": 1687,
      "的钱": 1688,
      "0000": 1689,
      "更换": 1690,
      "借贷": 1691,
      "分期": 1692,
      "回事": 1693,
      "多长": 1694,
      "出来": 1695,
      "问题": 1696,
      "开通微粒贷": 1697,
      "刚才": 1698,
      "电话号码": 1699,
      "提现": 1700,
      "多长时间": 1701,
      "全部": 1702,
      "没有额度": 1703,
      "还款吗": 1704,
      "我想问": 1705,
      "过来": 1706,
      "的利息": 1707,
      "支付": 1708,
      "条件": 1709,
      "取消借款": 1710,
      "支持": 1711,
      "为啥": 1712,
      "怎么回事": 1713,
      "能不能": 1714,
      "还款日期": 1715,
      "输入错误": 1716,
      "就是": 1717,
      "账单": 1718,
      "不成功": 1719,
      "可以吗": 1720,
      "是否": 1721,
      "一次性": 1722,
      "操作": 1723,
      "20": 1724,
      "一笔": 1725,
      "余额": 1726,
      "不通过": 1727,
      "qq": 1728,
      "邀请我": 1729,
      "借款失败": 1730,
      "次数": 1731,
      "计算": 1732,
      "重新": 1733,
      "原因": 1734,
      "还了": 1735,
      "开放": 1736,
      "再次": 1737,
      "帮我": 1738,
      "记录": 1739,
      "多少钱": 1740,
      "怎么算": 1741,
      "我现在": 1742,
      "图标": 1743,
      "修改": 1744,
      "一个": 1745,
      "哪里": 1746,
      "身份信息": 1747,
      "的吗": 1748,
      "过多": 1749,
      "符合": 1750,
      "不见": 1751,
      "取现": 1752,
      "还完": 1753,
      "里面": 1754,
      "预留": 1755,
      "到帐": 1756,
      "说我": 1757,
      "综合评估": 1758,
      "开户": 1759,
      "影响": 1760,
      "再借": 1761,
      "。,": 1762,
      "资格": 1763,
      "登陆": 1764,
      "一万": 1765,
      "以前": 1766,
      "提升": 1767,
      "进去": 1768,
      "500": 1769,
      "可以申请": 1770,
      "不符合": 1771,
      "不上": 1772,
      "提高": 1773,
      "绑定银行卡": 1774,
      "还可以": 1775,
      "不会": 1776,
      "不见了": 1777,
      "明天": 1778,
      "刚刚": 1779,
      "换卡": 1780,
      "恢复": 1781,
      "绑定的银行卡": 1782,
      "怎么没": 1783,
      "之后": 1784,
      "关闭微粒贷": 1785,
      "有钱": 1786,
      "无法借款": 1787,
      "微粒货": 1788,
      "卡里": 1789,
      "金额": 1790,
      "免息": 1791,
      "知道": 1792,
      "申请的": 1793,
      "查看": 1794,
      "是什么意思": 1795,
      "优惠": 1796,
      "昨天": 1797,
      "客户": 1798,
      "您好": 1799,
      "以后": 1800,
      "我可以": 1801,
      "下载": 1802,
      "才可以": 1803,
      "利息多少": 1804,
      "你们的": 1805,
      "变更": 1806,
      "次数过多": 1807,
      "评分": 1808,
      "分钟": 1809,
      "换了": 1810,
      "没有接到": 1811,
      "联系": 1812,
      "零钱": 1813,
      "微粒贷的": 1814,
      "不好": 1815,
      "消费": 1816,
      "自动扣款": 1817,
      "怎么没有": 1818,
      "了吗": 1819,
      "看不到": 1820,
      "怎么样": 1821,
      "短信": 1822,
      "还多少": 1823,
      "如果我": 1824,
      "总是": 1825,
      "收不到": 1826,
      "pp": 1827,
      "为什么会": 1828,
      "其他": 1829,
      "来电话": 1830,
      "如何更改": 1831,
      "确认电话": 1832,
      "微信上": 1833,
      "来电": 1834,
      " 我": 1835,
      "等待": 1836,
      "信用卡": 1837,
      "申请了": 1838,
      "期限": 1839,
      "怎么还": 1840,
      "1000": 1841,
      "多久会": 1842,
      "推迟": 1843,
      "10000": 1844,
      "不用": 1845,
      "降低": 1846,
      "开不了": 1847,
      "多少利息": 1848,
      "怎么取消": 1849,
      "怎么更改": 1850,
      "客服电话": 1851,
      "为什么没有": 1852,
      "每月": 1853,
      "！,": 1854,
      "苹果": 1855,
      "那个": 1856,
      "入口": 1857,
      "我这": 1858,
      "直接": 1859,
      "利息是多少": 1860,
      "为什么不能": 1861,
      "谢谢": 1862,
      "账户": 1863,
      "扣款失败": 1864,
      "还能": 1865,
      "怎么操作": 1866,
      "5000": 1867,
      "能否": 1868,
      "限额": 1869,
      "微众银行审批要求": 1870,
      "查询": 1871,
      "没接到电话": 1872,
      "还有": 1873,
      "多久可以": 1874,
      "通知": 1875,
      "多次": 1876,
      "app": 1877,
      "要多久": 1878,
      "系统": 1879,
      ",2": 1880,
      "资料": 1881,
      "还钱": 1882,
      "的卡": 1883,
      "不好意思": 1884,
      "不满足": 1885,
      "老是": 1886,
      "全部还清": 1887,
      "审核电话": 1888,
      "小时": 1889,
      "受邀": 1890,
      "个人": 1891,
      "账号": 1892,
      "借款吗": 1893,
      "人工": 1894,
      "什么时间": 1895,
      "微信钱包": 1896,
      "可不可以": 1897,
      "可以用": 1898,
      "放款": 1899,
      "是怎么回事": 1900,
      "贷款吗": 1901,
      "第二": 1902,
      "获得": 1903,
      "05": 1904,
      "情况": 1905,
      "继续": 1906,
      "征信": 1907,
      "过了": 1908,
      "凌晨": 1909,
      "每天": 1910,
      "开始": 1911,
      "看到": 1912,
      "使用微粒贷": 1913,
      "12": 1914,
      "几点": 1915,
      "还款卡": 1916,
      "到现在": 1917,
      "还款后": 1918,
      ".05": 1919,
      "上面": 1920,
      "开通了": 1921,
      "我怎么": 1922,
      "还款了": 1923,
      "的微粒贷": 1924,
      "都是": 1925,
      "全额": 1926,
      "借的": 1927,
      "到期": 1928,
      "还吗": 1929,
      "利息吗": 1930,
      "优惠券": 1931,
      "打来": 1932,
      "下午": 1933,
      "借不": 1934,
      "几号": 1935,
      "不能用": 1936,
      "两天": 1937,
      "一样": 1938,
      "何时会": 1939,
      "只能": 1940,
      "在哪里": 1941,
      "要等": 1942,
      "当天": 1943,
      "消失": 1944,
      "存款": 1945,
      "我的微粒贷": 1946,
      "朋友": 1947,
      "15": 1948,
      "不要": 1949,
      "你好 ": 1950,
      "17": 1951,
      "开通不了": 1952,
      "综合评估未通过": 1953,
      "打过来": 1954,
      "了 ": 1955,
      "什么时候能": 1956,
      "可是": 1957,
      "什么意思": 1958,
      "还款记录": 1959,
      "进入": 1960,
      "我想问一下": 1961,
      "有没有": 1962,
      "不能还款": 1963,
      "我借": 1964,
      "有什么": 1965,
      "综合评分": 1966,
      "扣钱": 1967,
      "马上": 1968,
      "我是": 1969,
      "会不会": 1970,
      "没通过": 1971,
      "找不到": 1972,
      "最高": 1973,
      "我今天": 1974,
      "为什么我没有": 1975,
      "登录不了": 1976,
      "可以提现": 1977,
      "。,1\n": 1978,
      "出现": 1979,
      "资金": 1980,
      "PP": 1981,
      "延迟": 1982,
      "限制": 1983,
      "手续": 1984,
      "帐单": 1985,
      "利率": 1986,
      "不足": 1987,
      "页面": 1988,
      "上午": 1989,
      "。,0\n": 1990,
      "动还款": 1991,
      "提高额度": 1992,
      "我有": 1993,
      "我手机": 1994,
      "每个月": 1995,
      "APP": 1996,
      "提交": 1997,
      "的时候": 1998,
      "定期": 1999,
      "不行": 2000,
      "获取": 2001,
      "我微信": 2002,
      "解决": 2003,
      "为什么借款": 2004,
      "填写": 2005,
      "？,1": 2006,
      "身份信息输入错误": 2007,
      "假如": 2008,
      "原来": 2009,
      "我想问下": 2010,
      "注销": 2011,
      "安全": 2012,
      "利息是": 2013,
      "块钱": 2014,
      "怎么计算": 2015,
      "一次性还清": 2016,
      "提前还": 2017,
      "绑定的": 2018,
      "微利": 2019,
      "转账": 2020,
      "部分": 2021,
      "的话": 2022,
      "按时": 2023,
      "这么": 2024,
      "计息": 2025,
      "算逾期": 2026,
      "是什么原因": 2027,
      "都没": 2028,
      "处理": 2029,
      "支付密码": 2030,
      "有额度": 2031,
      "提供": 2032,
      "最后": 2033,
      "打电话来": 2034,
      "才会": 2035,
      "0.05": 2036,
      "第一次": 2037,
      "核实": 2038,
      "没有了": 2039,
      "没额度": 2040,
      "借的钱": 2041,
      "为什么我的微粒贷": 2042,
      "可以借": 2043,
      "我提前还款": 2044,
      "自己": 2045,
      "那么": 2046,
      "借不出来": 2047,
      "成为": 2048,
      "麻烦": 2049,
      "因为": 2050,
      "早上": 2051,
      "罚息": 2052,
      "微粒代": 2053,
      "服务": 2054,
      "怎么还没": 2055,
      "取消吗": 2056,
      "电话审核": 2057,
      "用户": 2058,
      "不知道": 2059,
      "一张": 2060,
      "接到电话": 2061,
      "我在": 2062,
      "认证": 2063,
      "一期": 2064,
      "银行的": 2065,
      "不能借款": 2066,
      "提额": 2067,
      "手续费": 2068,
      "不想": 2069,
      "欠款": 2070,
      "还款银行卡": 2071,
      "怎么还款": 2072,
      "多久能": 2073,
      "提示我": 2074,
      ",3": 2075,
      "打开": 2076,
      "一千": 2077,
      "微利贷": 2078,
      "公司": 2079,
      "利息怎么算": 2080,
      "了怎么办": 2081,
      "定期存款": 2082,
      "突然": 2083,
      "这个功能": 2084,
      "如何取消": 2085,
      "打电话确认": 2086,
      "业务": 2087,
      "哪些": 2088,
      "怎么才能": 2089,
      " 怎么": 2090,
      "咨询": 2091,
      "收不到验证码": 2092,
      "苹果手机": 2093,
      "要等多久": 2094,
      "几时": 2095,
      "最多": 2096,
      "借款申请": 2097,
      "？？": 2098,
      "自动还款": 2099,
      "卡上": 2100,
      "其他银行卡": 2101,
      "的是": 2102,
      "消失了": 2103,
      "申请微粒贷": 2104,
      "想问": 2105,
      "还清了": 2106,
      "借吗": 2107,
      "一步": 2108,
      "微贷": 2109,
      "的手机": 2110,
      "转出": 2111,
      "我已经": 2112,
      "这样": 2113,
      "为什么有": 2114,
      "提醒": 2115,
      "没微粒贷": 2116,
      "为什么一直": 2117,
      "输错": 2118,
      "登录不上": 2119,
      "查看额度": 2120,
      "下个月": 2121,
      "为满足": 2122,
      "日息": 2123,
      "未满足微众银行审批要求": 2124,
      "几次": 2125,
      "2000": 2126,
      "在哪": 2127,
      "那里": 2128,
      "钱包里": 2129,
      "结清证明吗": 2130,
      "为什么显示": 2131,
      "延期": 2132,
      "申请借款后": 2133,
      "打电话过来": 2134,
      "21": 2135,
      "贷吗": 2136,
      "我需要": 2137,
      "不需要": 2138,
      "借不了": 2139,
      "比如": 2140,
      "3000": 2141,
      "用微信": 2142,
      "取现金": 2143,
      "所有": 2144,
      "用了": 2145,
      "名额": 2146,
      "！,1\n": 2147,
      "开不了户": 2148,
      "一般多久": 2149,
      "我的额度": 2150,
      "会有": 2151,
      "解除": 2152,
      "违约": 2153,
      "现在不能": 2154,
      "?,": 2155,
      "笔借款": 2156,
      "取消微粒贷": 2157,
      "流水": 2158,
      "办理": 2159,
      "晚上": 2160,
      "微粒贷图标": 2161,
      "借款了": 2162,
      "还没到账": 2163,
      "联系我": 2164,
      "红包": 2165,
      "！,0\n": 2166,
      "微信里": 2167,
      "，,": 2168,
      "提升额度": 2169,
      "转入": 2170,
      "借款期限": 2171,
      "不过": 2172,
      "为什么不": 2173,
      "何时会邀请我": 2174,
      "可否": 2175,
      "忘记": 2176,
      "我没有": 2177,
      "然后": 2178,
      "达到": 2179,
      "邀请的": 2180,
      "出来吗": 2181,
      "撤销": 2182,
      "什么原因": 2183,
      "银行电话": 2184,
      "也没": 2185,
      "借款额度": 2186,
      "正常": 2187,
      "充足": 2188,
      "介绍": 2189,
      "18": 2190,
      "万元": 2191,
      "还款的": 2192,
      "期还": 2193,
      "菜单": 2194,
      "什么条件": 2195,
      "逾期一天": 2196,
      "借款成功": 2197,
      "为何我": 2198,
      "再借吗": 2199,
      "本金": 2200,
      "微众银行的": 2201,
      "消息": 2202,
      "用于": 2203,
      "审核不通过": 2204,
      "以前的": 2205,
      "卡里有钱": 2206,
      "还款日是": 2207,
      "怎么改": 2208,
      "回复": 2209,
      "为什么还": 2210,
      "下来": 2211,
      "无法借钱": 2212,
      "借款的": 2213,
      "交易": 2214,
      "申请后": 2215,
      "下次": 2216,
      "必须": 2217,
      "腾讯": 2218,
      "不是说": 2219,
      "的利息是多少": 2220,
      "都没有": 2221,
      "审核未通过": 2222,
      "升额度": 2223,
      "活动": 2224,
      "需要多久": 2225,
      "十个月": 2226,
      "再打": 2227,
      "用吗": 2228,
      "掉了": 2229,
      "违约金": 2230,
      "怎么用": 2231,
      "一笔借款": 2232,
      "额度会": 2233,
      "一年": 2234,
      "我刚才": 2235,
      "等待电话确认": 2236,
      "16": 2237,
      "微信号": 2238,
      "还清证明": 2239,
      "   ": 2240,
      "身份证号": 2241,
      "是还款日": 2242,
      "就可以": 2243,
      "卡号": 2244,
      "找到": 2245,
      "标准": 2246,
      "没有扣款": 2247,
      "银行审批要求": 2248,
      "我的银行卡": 2249,
      "扣除": 2250,
      "的借款": 2251,
      "会影响": 2252,
      "到了": 2253,
      "天免息": 2254,
      "微粒袋": 2255,
      "无法查看额度": 2256,
      "合同": 2257,
      "微众银行审批": 2258,
      "未满足审批要求": 2259,
      "两次": 2260,
      "可借": 2261,
      "进行": 2262,
      "支付宝": 2263,
      "下一步": 2264,
      "大概": 2265,
      "活期": 2266,
      "怎么关闭": 2267,
      "可以取现": 2268,
      "4000": 2269,
      "on": 2270,
      "日利息": 2271,
      "没收到": 2272,
      "给我打电话": 2273,
      "正确": 2274,
      "点前": 2275,
      "还要": 2276,
      "我之前": 2277,
      "的额度": 2278,
      "还会": 2279,
      "我为什么": 2280,
      "\"\"": 2281,
      "主动还款": 2282,
      "怎么开通": 2283,
      "一次还清": 2284,
      "一定": 2285,
      "不对": 2286,
      "如何获得": 2287,
      "手机上": 2288,
      "身份证号码": 2289,
      "登陆不了": 2290,
      "one": 2291,
      "\",": 2292,
      "粒贷": 2293,
      "产品": 2294,
      ",10": 2295,
      "现在可以": 2296,
      "0.05%": 2297,
      "什么时候会": 2298,
      "存钱": 2299,
      "款吗": 2300,
      "没到账": 2301,
      "点击": 2302,
      "身份验证": 2303,
      "可以提现吗": 2304,
      "30": 2305,
      "不支持": 2306,
      "收取": 2307,
      "是什么时候": 2308,
      ",10000": 2309,
      "得到": 2310,
      "我能": 2311,
      "转到": 2312,
      "为什么说我": 2313,
      "一万元": 2314,
      "信用卡吗": 2315,
      "太多": 2316,
      "绑卡": 2317,
      "银行预留": 2318,
      "身份信息输入错误次数过多": 2319,
      "行卡": 2320,
      "还款卡号": 2321,
      "理财": 2322,
      "网络": 2323,
      "还款成功": 2324,
      "更换手机号": 2325,
      "降低额度": 2326,
      "信用额度": 2327,
      "也没有": 2328,
      "如何还款": 2329,
      "不能借钱": 2330,
      "丢了": 2331,
      "更改了": 2332,
      "无法登陆": 2333,
      "hone": 2334,
      "把钱": 2335,
      "日利率": 2336,
      "为什么总是": 2337,
      "个小时": 2338,
      "凭证": 2339,
      "听到": 2340,
      "帐号": 2341,
      "期还款": 2342,
      "解绑": 2343,
      "号还款": 2344,
      "客人": 2345,
      "款项": 2346,
      "怎么不": 2347,
      "是否可以": 2348,
      "单笔": 2349,
      "发送": 2350,
      "可以在": 2351,
      "你好我": 2352,
      "今天借": 2353,
      "四位": 2354,
      "申请借款": 2355,
      "微信钱包里": 2356,
      "一共": 2357,
      "换手机号": 2358,
      "五个月": 2359,
      "没有通过": 2360,
      "次借款": 2361,
      "打电话给我": 2362,
      "余额充足": 2363,
      "帐户": 2364,
      "了解": 2365,
      "还款银行": 2366,
      "为什么没有微粒贷": 2367,
      "应该": 2368,
      "方式": 2369,
      "逾期了": 2370,
      "一部分": 2371,
      "过去": 2372,
      "额度没有": 2373,
      "别人": 2374,
      "借款后多久": 2375,
      "可以取": 2376,
      "受邀客户": 2377,
      "没有接到电话": 2378,
      "不用了": 2379,
      "怎么申请": 2380,
      "行吗": 2381,
      "怎么还没有": 2382,
      "一般多长时间": 2383,
      "无法登录": 2384,
      "没成功": 2385,
      "还上": 2386,
      ",17": 2387,
      "如何修改": 2388,
      "我朋友": 2389,
      "用途": 2390,
      "老板": 2391,
      "提前还款吗": 2392,
      "不开": 2393,
      "为什么现在": 2394,
      "1.": 2395,
      "到我": 2396,
      "还款日期吗": 2397,
      "剩余": 2398,
      "工资": 2399,
      "的手机号码": 2400,
      "能借": 2401,
      "还款时间": 2402,
      "输入密码": 2403,
      "办法": 2404,
      "后面": 2405,
      "开结清证明": 2406,
      "是多久": 2407,
      "一天多少": 2408,
      "全额还款": 2409,
      "算逾期吗": 2410,
      "付通": 2411,
      "期的": 2412,
      "财付通": 2413,
      "如何更换": 2414,
      "身份信息错误": 2415,
      ",\"": 2416,
      "后可以": 2417,
      "这个月": 2418,
      "申请吗": 2419,
      "?,0\n": 2420,
      "咋样": 2421,
      "或者": 2422,
      "    ": 2423,
      "不够": 2424,
      "我昨天": 2425,
      "要还": 2426,
      "可以取消吗": 2427,
      "输入验证码": 2428,
      "就没": 2429,
      "手动还款": 2430,
      "重新绑定": 2431,
      "第二天": 2432,
      "了呢": 2433,
      "任何": 2434,
      "别的银行卡": 2435,
      "扣了": 2436,
      "换手机号码": 2437,
      "可以申请吗": 2438,
      "后四位": 2439,
      "星期": 2440,
      "取消贷款": 2441,
      "审批条件": 2442,
      "可以更改": 2443,
      "一天还款": 2444,
      "1:": 2445,
      "24": 2446,
      "不一样": 2447,
      "从新": 2448,
      "国华": 2449,
      "抢购": 2450,
      "怎么不能": 2451,
      "先还": 2452,
      "？ ": 2453,
      "电话没接到": 2454,
      "我的微信": 2455,
      "借的款": 2456,
      "1500": 2457,
      "每次": 2458,
      "信息错误": 2459,
      "为什么微粒贷": 2460,
      "按时还款": 2461,
      "只有": 2462,
      "三天": 2463,
      "多钱": 2464,
      "的银行": 2465,
      "怎么修改": 2466,
      "影响吗": 2467,
      "是为什么": 2468,
      "注册": 2469,
      "重复": 2470,
      "错了": 2471,
      "怎么弄": 2472,
      "银行卡绑定": 2473,
      "一般什么时候": 2474,
      "微众卡": 2475,
      "商银行": 2476,
      "啥时候": 2477,
      "购买": 2478,
      "微粒贷借款": 2479,
      "多久才能": 2480,
      "余额不足": 2481,
      "丢失": 2482,
      "但是我": 2483,
      "19": 2484,
      "其它": 2485,
      "安卓": 2486,
      "帮忙": 2487,
      "请求": 2488,
      "我的手机": 2489,
      "关注": 2490,
      "回访": 2491,
      ",1000": 2492,
      "还款期": 2493,
      "为啥我": 2494,
      "删除": 2495,
      "未接到": 2496,
      "如何改": 2497,
      "开通微粒": 2498,
      "提前还款后": 2499,
      "一定要": 2500,
      "没扣": 2501,
      "都有": 2502,
      "最低": 2503,
      "设置": 2504,
      "我不": 2505,
      "错过了": 2506,
      "申请贷款": 2507,
      "一份": 2508,
      "姓名": 2509,
      "版本": 2510,
      "微信零钱": 2511,
      "怎样才能": 2512,
      ",5": 2513,
      "我银行卡": 2514,
      "的手机号": 2515,
      "能用": 2516,
      "借钱失败": 2517,
      "第二次": 2518,
      "微粒贷是": 2519,
      "什么时候才能": 2520,
      "扣款不成功": 2521,
      "元一天": 2522,
      "我借款": 2523,
      "齐鲁": 2524,
      "怎么没有微粒贷": 2525,
      "怎么没微粒贷": 2526,
      "不能用于": 2527,
      "23": 2528,
      "我还款": 2529,
      "什么是": 2530,
      "如何开通": 2531,
      "需要什么": 2532,
      "的款": 2533,
      "扣款吗": 2534,
      "显示综合评估未通过": 2535,
      "为什么说": 2536,
      "为什么今天": 2537,
      "电话核实": 2538,
      "请问我": 2539,
      "优惠卷": 2540,
      "在吗": 2541,
      "窗口": 2542,
      "邮政": 2543,
      "提前还清了": 2544,
      "100": 2545,
      "好久": 2546,
      "打了": 2547,
      "还款证明": 2548,
      "为什么我借款": 2549,
      "取消借款吗": 2550,
      "下月": 2551,
      "还不了": 2552,
      "50": 2553,
      "建设": 2554,
      "快点": 2555,
      "被盗": 2556,
      "今天借款": 2557,
      "已还清": 2558,
      "接听": 2559,
      "可以改": 2560,
      "手机没": 2561,
      "一直没有": 2562,
      "充值": 2563,
      "我问": 2564,
      "还未": 2565,
      "是多少钱": 2566,
      "是什么情况": 2567,
      "再贷": 2568,
      "开个": 2569,
      "更新": 2570,
      "的电话": 2571,
      "分期还款": 2572,
      "次数太多": 2573,
      "不给我": 2574,
      "完成": 2575,
      "一张卡": 2576,
      "投资": 2577,
      "被邀请": 2578,
      "到银行卡": 2579,
      "要还多少": 2580,
      "登陆不上": 2581,
      "我把": 2582,
      "领取": 2583,
      "还完了": 2584,
      "信号": 2585,
      "界面": 2586,
      "额度吗": 2587,
      "开通 ": 2588,
      "28": 2589,
      "两笔": 2590,
      "我没接到": 2591,
      "可以提": 2592,
      "电话多少": 2593,
      "里面没有微粒贷": 2594,
      "预留手机号": 2595,
      "何时会邀请我使用微粒贷": 2596,
      "6000": 2597,
      "贷了": 2598,
      "开通吗": 2599,
      "什么时候再": 2600,
      "个人信息": 2601,
      "登不上": 2602,
      "的问题": 2603,
      "借钱吗": 2604,
      "更换了": 2605,
      "我刚": 2606,
      "还没扣款": 2607,
      "我们": 2608,
      "的还款": 2609,
      "让我": 2610,
      "选择": 2611,
      "怎么处理": 2612,
      "提前还清借款": 2613,
      "手续费吗": 2614,
      "关掉": 2615,
      "发验证码": 2616,
      "我都": 2617,
      "正在": 2618,
      "还信用卡吗": 2619,
      "闪退": 2620,
      "什么银行": 2621,
      ",4": 2622,
      "也是": 2623,
      "干嘛": 2624,
      "收费": 2625,
      "稳固": 2626,
      "看不到额度": 2627,
      "怎么样才能": 2628,
      "齐鲁稳固": 2629,
      "就不能": 2630,
      "软件": 2631,
      "，,1\n": 2632,
      "可以借款": 2633,
      "银行审批": 2634,
      "显示我": 2635,
      "算利息": 2636,
      "怎么不见了": 2637,
      "申请成功": 2638,
      "通过审批": 2639,
      "一样吗": 2640,
      "\",1\n": 2641,
      "11": 2642,
      "借到": 2643,
      "及时": 2644,
      "和微信": 2645,
      "开具": 2646,
      "忘了": 2647,
      "才有": 2648,
      "收益": 2649,
      "还不": 2650,
      "我的贷款": 2651,
      "借钱了": 2652,
      "怎样更改": 2653,
      "这么久": 2654,
      "取现金吗": 2655,
      "天天": 2656,
      "期账单": 2657,
      "的电话号码": 2658,
      "借款 ": 2659,
      "提前还款了": 2660,
      "分之": 2661,
      "号凌晨": 2662,
      "太平": 2663,
      "昨晚": 2664,
      "错过": 2665,
      "怎么会": 2666,
      "贷款结清证明": 2667,
      "几点扣款": 2668,
      "可以给我": 2669,
      "请问一下": 2670,
      "下款": 2671,
      "产生": 2672,
      "工作": 2673,
      "有限额": 2674,
      "怎么我": 2675,
      "我的借款": 2676,
      "这功能": 2677,
      ",15": 2678,
      "为什么还没有": 2679,
      "如何才能": 2680,
      "今天是还款日": 2681,
      "一直没": 2682,
      "好了": 2683,
      "月份": 2684,
      "确定": 2685,
      "赎回": 2686,
      "ip": 2687,
      "人品": 2688,
      "换手机": 2689,
      "日利息多少": 2690,
      "什么情况": 2691,
      "限制吗": 2692,
      "具体": 2693,
      "告诉": 2694,
      "最近": 2695,
      "人行": 2696,
      "几个": 2697,
      "我如果": 2698,
      "用微粒贷": 2699,
      "这里": 2700,
      "审批不通过": 2701,
      "身份证后四位": 2702,
      "短信验证码": 2703,
      "微众银行的审批要求": 2704,
      "打不开": 2705,
      "添加": 2706,
      "点之前": 2707,
      "的啊": 2708,
      "足够": 2709,
      "为什么没": 2710,
      "失败呢": 2711,
      "个月还款": 2712,
      "审核失败": 2713,
      "我想把": 2714,
      "22": 2715,
      "40000": 2716,
      "出具": 2717,
      "本人": 2718,
      "申请不了": 2719,
      "显示微粒贷": 2720,
      "自动还款失败": 2721,
      "客服电话号码": 2722,
      "想问下": 2723,
      "2500": 2724,
      "上次": 2725,
      "不借了": 2726,
      "主动": 2727,
      "只是": 2728,
      "微粒贷入口": 2729,
      "个月还": 2730,
      "明天还": 2731,
      "付款": 2732,
      "借过": 2733,
      "我用": 2734,
      "13": 2735,
      "两个": 2736,
      "可能": 2737,
      ",0.05": 2738,
      "银行电话确认": 2739,
      "如何关闭": 2740,
      "扣款啊": 2741,
      "身份证输入错误": 2742,
      "一次性还款": 2743,
      "怎么算利息": 2744,
      "成为微粒贷": 2745,
      "致电": 2746,
      "现在怎么": 2747,
      "为什么我的借款": 2748,
      "我申请": 2749,
      "扣费": 2750,
      "，,0\n": 2751,
      "怎么可以": 2752,
      "可以直接": 2753,
      "你好 我": 2754,
      "一般会": 2755,
      "为什么无法": 2756,
      "为什么还没": 2757,
      "农业": 2758,
      "反应": 2759,
      "在借款": 2760,
      "为什么我没有微粒贷": 2761,
      "一点": 2762,
      "微立": 2763,
      "息是多少": 2764,
      "能取消吗": 2765,
      "额度是": 2766,
      "扣款呢": 2767,
      "借不出来了": 2768,
      "邀请的客人": 2769,
      "?,1\n": 2770,
      "一起": 2771,
      "七天免息": 2772,
      "后来": 2773,
      "结果": 2774,
      "？？,": 2775,
      "你好  ": 2776,
      "如何计算": 2777,
      "为什么我的微信": 2778,
      "帮我取消": 2779,
      "人员": 2780,
      "所以": 2781,
      "费用": 2782,
      "风险": 2783,
      ",1:": 2784,
      "为什么我没有额度": 2785,
      "无法还款": 2786,
      "这个微粒贷": 2787,
      "全额还款后": 2788,
      "我什么时候可以": 2789,
      "是吗": 2790,
      "还款是": 2791,
      "为什么没有额度": 2792,
      "为什么我不能": 2793,
      "恢复额度": 2794,
      "钱了": 2795,
      "怎么计息": 2796,
      "没有收到": 2797,
      "手机验证码": 2798,
      "假如我": 2799,
      ",7": 2800,
      "借几天": 2801,
      "分几": 2802,
      "在借": 2803,
      "就能": 2804,
      "授信": 2805,
      "日常": 2806,
      "非法": 2807,
      "可以再": 2808,
      "没有成功": 2809,
      "一般审核": 2810,
      "再次借款": 2811,
      "还钱吗": 2812,
      "人行征信": 2813,
      "不算逾期": 2814,
      "怎么更换": 2815,
      "如何提升": 2816,
      "开通啊": 2817,
      "借钱功能": 2818,
      "提示还款失败": 2819,
      "是啥": 2820,
      "月月": 2821,
      "流泪": 2822,
      "的号码": 2823,
      "什么时候还": 2824,
      "可以取现吗": 2825,
      "8000": 2826,
      "循环": 2827,
      "暂时": 2828,
      "有吗": 2829,
      "的原因": 2830,
      "，，": 2831,
      "如何查询": 2832,
      "什么时候还款": 2833,
      "我想咨询": 2834,
      "进去了": 2835,
      "发放": 2836,
      "手动": 2837,
      "元分": 2838,
      "去银行": 2839,
      "当月": 2840,
      "点多": 2841,
      "怎么换": 2842,
      "还清贷款": 2843,
      "为什么我没": 2844,
      "邀请客户": 2845,
      "信用度": 2846,
      "有微粒贷的": 2847,
      "开通微粒贷吗": 2848,
      "建设银行": 2849,
      "借据": 2850,
      "储蓄": 2851,
      "实名": 2852,
      "日期": 2853,
      "为什么我一直": 2854,
      "卡上有钱": 2855,
      "微米": 2856,
      "明细": 2857,
      "还的": 2858,
      "怎么办理": 2859,
      "评估不通过": 2860,
      ",/": 2861,
      "存在": 2862,
      "完了": 2863,
      "提额度": 2864,
      "为什么要": 2865,
      "输入支付密码": 2866,
      "人工服务": 2867,
      "人品值": 2868,
      "3#": 2869,
      "。。": 2870,
      "再借款": 2871,
      "现金": 2872,
      "微粒贷吗": 2873,
      "里面没有": 2874,
      "变更了": 2875,
      "推迟几天": 2876,
      "开通了微粒贷": 2877,
      "中国": 2878,
      "了还没": 2879,
      "多笔借款": 2880,
      "何时能": 2881,
      "再次扣款": 2882,
      "我提前还款了": 2883,
      "息多少": 2884,
      "我申请了": 2885,
      "可以贷款": 2886,
      "可以提前还款吗": 2887,
      "我的钱": 2888,
      "微信支付": 2889,
      "\",0\n": 2890,
      "了银行卡": 2891,
      "众享": 2892,
      "农行": 2893,
      "工商银行": 2894,
      "方便": 2895,
      "还款不成功": 2896,
      "为什么借钱": 2897,
      "失败了": 2898,
      "绑定卡": 2899,
      "我想关闭微粒贷": 2900,
      "如何更改还款": 2901,
      "如何提升额": 2902,
      " 微粒贷": 2903,
      "25": 2904,
      "iP": 2905,
      "去了": 2906,
      "发到": 2907,
      "号借款": 2908,
      "点了": 2909,
      "项目": 2910,
      "如何申请": 2911,
      "一直在": 2912,
      "90": 2913,
      "不在": 2914,
      "会打电话": 2915,
      "存入": 2916,
      "能通过": 2917,
      "电话是多少": 2918,
      "不能通过": 2919,
      "我想知道": 2920,
      "自动扣除": 2921,
      "收到验证码": 2922,
      "一个结清证明": 2923,
      "未达到": 2924,
      "为什么还是": 2925,
      "可以换": 2926,
      "可以贷": 2927,
      "什么时候扣款": 2928,
      "提前还完": 2929,
      "没有微粒贷啊": 2930,
      "一次性还完": 2931,
      "怎么算的": 2932,
      "申请的贷款": 2933,
      "多次输入错误": 2934,
      "天天利": 2935,
      "加入": 2936,
      "目前": 2937,
      "超过": 2938,
      "为什么老是": 2939,
      "你们这个": 2940,
      "提现吗": 2941,
      "看不到微粒贷": 2942,
      "号还款日": 2943,
      "对吗": 2944,
      "对我": 2945,
      "我说": 2946,
      "没法": 2947,
      "微粒贷啊": 2948,
      "不能贷款": 2949,
      "银行卡里": 2950,
      "无法满足": 2951,
      "但我": 2952,
      "建行": 2953,
      "我微粒贷": 2954,
      "有影响吗": 2955,
      "等了": 2956,
      "能帮我": 2957,
      "微粒貸": 2958,
      "银行卡吗": 2959,
      "输入多次": 2960,
      "下载了": 2961,
      "提交了": 2962,
      "可以取出来吗": 2963,
      "告诉我": 2964,
      "为什": 2965,
      "等到": 2966,
      "能改": 2967,
      "怎么我的": 2968,
      "没有借款": 2969,
      "利息多少钱": 2970,
      "我的还款": 2971,
      "如何关闭微粒贷": 2972,
      "不能借": 2973,
      "个月的": 2974,
      "需要什么条件": 2975,
      "就还": 2976,
      "新卡": 2977,
      "没了": 2978,
      "没听到": 2979,
      ",1.": 2980,
      "微信里面": 2981,
      "不了额度": 2982,
      "的利息是": 2983,
      "支持的银行": 2984,
      "恢复吗": 2985,
      "上面显示": 2986,
      "国华月月": 2987,
      "微立贷": 2988,
      "合格": 2989,
      "百分之": 2990,
      "等多久": 2991,
      "微信贷": 2992,
      "需要多长时间": 2993,
      "众享太平": 2994,
      "人脸": 2995,
      "天还款": 2996,
      "没钱": 2997,
      "用不了": 2998,
      "过不了": 2999
    },
    "merges": [
      [
        ",",
        "1"
      ],
      [
        ",",
        "0"
      ],
      [
        ",1",
        "\n"
      ],
      [
        ",0",
        "\n"
      ],
      [
        "什",
        "么"
      ],
      [
        "还",
        "款"
      ],
      [
        "怎",
        "么"
      ],
      [
        "为",
        "什么"
      ],
      [
        "微",
        "粒"
      ],
      [
        "可",
        "以"
      ],
      [
        "微粒",
        "贷"
      ],
      [
        "借",
        "款"
      ],
      [
        "电",
        "话"
      ],
      [
        "没",
        "有"
      ],
      [
        "银",
        "行"
      ],
      [
        "？",
        ","
      ],
      [
        "0",
        "0"
      ],
      [
        "额",
        "度"
      ],
      [
        "你",
        "好"
      ],
      [
        "多",
        "少"
      ],
      [
        "申",
        "请"
      ],
      [
        "利",
        "息"
      ],
      [
        "？",
        ",0\n"
      ],
      [
        "我",
        "的"
      ],
      [
        "如",
        "何"
      ],
      [
        "？",
        ",1\n"
      ],
      [
        "时",
        "候"
      ],
      [
        "不",
        "能"
      ],
      [
        "开",
        "通"
      ],
      [
        "手",
        "机"
      ],
      [
        "银行",
        "卡"
      ],
      [
        "什么",
        "时候"
      ],
      [
        "微",
        "信"
      ],
      [
        "提",
        "前"
      ],
      [
        "失",
        "败"
      ],
      [
        "多",
        "久"
      ],
      [
        "贷",
        "款"
      ],
      [
        "还",
        "清"
      ],
      [
        "为什么",
        "我"
      ],
      [
        "现",
        "在"
      ],
      [
        "取",
        "消"
      ],
      [
        "通",
        "过"
      ],
      [
        "扣",
        "款"
      ],
      [
        "个",
        "月"
      ],
      [
        "审",
        "批"
      ],
      [
        "号",
        "码"
      ],
      [
        "不",
        "了"
      ],
      [
        "绑",
        "定"
      ],
      [
        "借",
        "钱"
      ],
      [
        "显",
        "示"
      ],
      [
        "今",
        "天"
      ],
      [
        "审",
        "核"
      ],
      [
        "确",
        "认"
      ],
      [
        "还款",
        "日"
      ],
      [
        "我",
        "想"
      ],
      [
        "接",
        "到"
      ],
      [
        "验",
        "证"
      ],
      [
        "你",
        "们"
      ],
      [
        "身",
        "份"
      ],
      [
        "更",
        "改"
      ],
      [
        "时",
        "间"
      ],
      [
        "不",
        "是"
      ],
      [
        "00",
        "0"
      ],
      [
        "打",
        "电话"
      ],
      [
        "要",
        "求"
      ],
      [
        "一",
        "般"
      ],
      [
        "微",
        "众"
      ],
      [
        "成",
        "功"
      ],
      [
        "无",
        "法"
      ],
      [
        "怎么",
        "办"
      ],
      [
        "请",
        "问"
      ],
      [
        "提前",
        "还款"
      ],
      [
        "输",
        "入"
      ],
      [
        "邀",
        "请"
      ],
      [
        "一",
        "次"
      ],
      [
        "满",
        "足"
      ],
      [
        "信",
        "息"
      ],
      [
        "需",
        "要"
      ],
      [
        "如",
        "果"
      ],
      [
        "证",
        "明"
      ],
      [
        "不",
        "到"
      ],
      [
        "逾",
        "期"
      ],
      [
        "一",
        "天"
      ],
      [
        "是",
        "多少"
      ],
      [
        "错",
        "误"
      ],
      [
        "一",
        "直"
      ],
      [
        "这",
        "个"
      ],
      [
        "验证",
        "码"
      ],
      [
        " ",
        " "
      ],
      [
        "Q",
        "Q"
      ],
      [
        "到",
        "账"
      ],
      [
        "微众",
        "银行"
      ],
      [
        "给",
        "我"
      ],
      [
        "还",
        "没"
      ],
      [
        "结",
        "清"
      ],
      [
        "没有",
        "微粒贷"
      ],
      [
        "意",
        "思"
      ],
      [
        "是",
        "什么"
      ],
      [
        "怎",
        "样"
      ],
      [
        "才",
        "能"
      ],
      [
        "审批",
        "要求"
      ],
      [
        "提",
        "示"
      ],
      [
        "为什么",
        "我的"
      ],
      [
        "钱",
        "包"
      ],
      [
        "为",
        "何"
      ],
      [
        "已",
        "经"
      ],
      [
        "关",
        "闭"
      ],
      [
        "还",
        "是"
      ],
      [
        "一",
        "下"
      ],
      [
        "电话",
        "确认"
      ],
      [
        "提前",
        "还清"
      ],
      [
        "结清",
        "证明"
      ],
      [
        "信",
        "用"
      ],
      [
        "评",
        "估"
      ],
      [
        "借款",
        "后"
      ],
      [
        "手机",
        "号"
      ],
      [
        "自",
        "动"
      ],
      [
        "没",
        "接到"
      ],
      [
        "但",
        "是"
      ],
      [
        "身份",
        "证"
      ],
      [
        "综",
        "合"
      ],
      [
        "不",
        "可以"
      ],
      [
        "什么时候",
        "可以"
      ],
      [
        "手机",
        "号码"
      ],
      [
        "使",
        "用"
      ],
      [
        "几",
        "天"
      ],
      [
        "未",
        "通过"
      ],
      [
        "借",
        "了"
      ],
      [
        "登",
        "录"
      ],
      [
        "客",
        "服"
      ],
      [
        "何",
        "时"
      ],
      [
        "还款",
        "失败"
      ],
      [
        "是",
        "不是"
      ],
      [
        "的",
        "银行卡"
      ],
      [
        "收",
        "到"
      ],
      [
        "1",
        "0"
      ],
      [
        "密",
        "码"
      ],
      [
        "还",
        "没有"
      ],
      [
        "功",
        "能"
      ],
      [
        "有",
        "微粒贷"
      ],
      [
        "一",
        "个月"
      ],
      [
        "我",
        "要"
      ],
      [
        "未",
        "满足"
      ],
      [
        "之",
        "前"
      ],
      [
        "的",
        "钱"
      ],
      [
        "00",
        "00"
      ],
      [
        "更",
        "换"
      ],
      [
        "借",
        "贷"
      ],
      [
        "分",
        "期"
      ],
      [
        "回",
        "事"
      ],
      [
        "多",
        "长"
      ],
      [
        "出",
        "来"
      ],
      [
        "问",
        "题"
      ],
      [
        "开通",
        "微粒贷"
      ],
      [
        "刚",
        "才"
      ],
      [
        "电话",
        "号码"
      ],
      [
        "提",
        "现"
      ],
      [
        "多长",
        "时间"
      ],
      [
        "全",
        "部"
      ],
      [
        "没有",
        "额度"
      ],
      [
        "还款",
        "吗"
      ],
      [
        "我想",
        "问"
      ],
      [
        "过",
        "来"
      ],
      [
        "的",
        "利息"
      ],
      [
        "支",
        "付"
      ],
      [
        "条",
        "件"
      ],
      [
        "取消",
        "借款"
      ],
      [
        "支",
        "持"
      ],
      [
        "为",
        "啥"
      ],
      [
        "怎么",
        "回事"
      ],
      [
        "能",
        "不能"
      ],
      [
        "还款日",
        "期"
      ],
      [
        "输入",
        "错误"
      ],
      [
        "就",
        "是"
      ],
      [
        "账",
        "单"
      ],
      [
        "不",
        "成功"
      ],
      [
        "可以",
        "吗"
      ],
      [
        "是",
        "否"
      ],
      [
        "一次",
        "性"
      ],
      [
        "操",
        "作"
      ],
      [
        "2",
        "0"
      ],
      [
        "一",
        "笔"
      ],
      [
        "余",
        "额"
      ],
      [
        "不",
        "通过"
      ],
      [
        "q",
        "q"
      ],
      [
        "邀请",
        "我"
      ],
      [
        "借款",
        "失败"
      ],
      [
        "次",
        "数"
      ],
      [
        "计",
        "算"
      ],
      [
        "重",
        "新"
      ],
      [
        "原",
        "因"
      ],
      [
        "还",
        "了"
      ],
      [
        "开",
        "放"
      ],
      [
        "再",
        "次"
      ],
      [
        "帮",
        "我"
      ],
      [
        "记",
        "录"
      ],
      [
        "多少",
        "钱"
      ],
      [
        "怎么",
        "算"
      ],
      [
        "我",
        "现在"
      ],
      [
        "图",
        "标"
      ],
      [
        "修",
        "改"
      ],
      [
        "一",
        "个"
      ],
      [
        "哪",
        "里"
      ],
      [
        "身份",
        "信息"
      ],
      [
        "的",
        "吗"
      ],
      [
        "过",
        "多"
      ],
      [
        "符",
        "合"
      ],
      [
        "不",
        "见"
      ],
      [
        "取",
        "现"
      ],
      [
        "还",
        "完"
      ],
      [
        "里",
        "面"
      ],
      [
        "预",
        "留"
      ],
      [
        "到",
        "帐"
      ],
      [
        "说",
        "我"
      ],
      [
        "综合",
        "评估"
      ],
      [
        "开",
        "户"
      ],
      [
        "影",
        "响"
      ],
      [
        "再",
        "借"
      ],
      [
        "。",
        ","
      ],
      [
        "资",
        "格"
      ],
      [
        "登",
        "陆"
      ],
      [
        "一",
        "万"
      ],
      [
        "以",
        "前"
      ],
      [
        "提",
        "升"
      ],
      [
        "进",
        "去"
      ],
      [
        "5",
        "00"
      ],
      [
        "可以",
        "申请"
      ],
      [
        "不",
        "符合"
      ],
      [
        "不",
        "上"
      ],
      [
        "提",
        "高"
      ],
      [
        "绑定",
        "银行卡"
      ],
      [
        "还",
        "可以"
      ],
      [
        "不",
        "会"
      ],
      [
        "不见",
        "了"
      ],
      [
        "明",
        "天"
      ],
      [
        "刚",
        "刚"
      ],
      [
        "换",
        "卡"
      ],
      [
        "恢",
        "复"
      ],
      [
        "绑定",
        "的银行卡"
      ],
      [
        "怎么",
        "没"
      ],
      [
        "之",
        "后"
      ],
      [
        "关闭",
        "微粒贷"
      ],
      [
        "有",
        "钱"
      ],
      [
        "无法",
        "借款"
      ],
      [
        "微粒",
        "货"
      ],
      [
        "卡",
        "里"
      ],
      [
        "金",
        "额"
      ],
      [
        "免",
        "息"
      ],
      [
        "知",
        "道"
      ],
      [
        "申请",
        "的"
      ],
      [
        "查",
        "看"
      ],
      [
        "是什么",
        "意思"
      ],
      [
        "优",
        "惠"
      ],
      [
        "昨",
        "天"
      ],
      [
        "客",
        "户"
      ],
      [
        "您",
        "好"
      ],
      [
        "以",
        "后"
      ],
      [
        "我",
        "可以"
      ],
      [
        "下",
        "载"
      ],
      [
        "才",
        "可以"
      ],
      [
        "利息",
        "多少"
      ],
      [
        "你们",
        "的"
      ],
      [
        "变",
        "更"
      ],
      [
        "次数",
        "过多"
      ],
      [
        "评",
        "分"
      ],
      [
        "分",
        "钟"
      ],
      [
        "换",
        "了"
      ],
      [
        "没有",
        "接到"
      ],
      [
        "联",
        "系"
      ],
      [
        "零",
        "钱"
      ],
      [
        "微粒贷",
        "的"
      ],
      [
        "不",
        "好"
      ],
      [
        "消",
        "费"
      ],
      [
        "自动",
        "扣款"
      ],
      [
        "怎么",
        "没有"
      ],
      [
        "了",
        "吗"
      ],
      [
        "看",
        "不到"
      ],
      [
        "怎么",
        "样"
      ],
      [
        "短",
        "信"
      ],
      [
        "还",
        "多少"
      ],
      [
        "如果",
        "我"
      ],
      [
        "总",
        "是"
      ],
      [
        "收",
        "不到"
      ],
      [
        "p",
        "p"
      ],
      [
        "为什么",
        "会"
      ],
      [
        "其",
        "他"
      ],
      [
        "来",
        "电话"
      ],
      [
        "如何",
        "更改"
      ],
      [
        "确认",
        "电话"
      ],
      [
        "微信",
        "上"
      ],
      [
        "来",
        "电"
      ],
      [
        " ",
        "我"
      ],
      [
        "等",
        "待"
      ],
      [
        "信用",
        "卡"
      ],
      [
        "申请",
        "了"
      ],
      [
        "期",
        "限"
      ],
      [
        "怎么",
        "还"
      ],
      [
        "1",
        "000"
      ],
      [
        "多久",
        "会"
      ],
      [
        "推",
        "迟"
      ],
      [
        "1",
        "0000"
      ],
      [
        "不",
        "用"
      ],
      [
        "降",
        "低"
      ],
      [
        "开",
        "不了"
      ],
      [
        "多少",
        "利息"
      ],
      [
        "怎么",
        "取消"
      ],
      [
        "怎么",
        "更改"
      ],
      [
        "客服",
        "电话"
      ],
      [
        "为什么",
        "没有"
      ],
      [
        "每",
        "月"
      ],
      [
        "！",
        ","
      ],
      [
        "苹",
        "果"
      ],
      [
        "那",
        "个"
      ],
      [
        "入",
        "口"
      ],
      [
        "我",
        "这"
      ],
      [
        "直",
        "接"
      ],
      [
        "利息",
        "是多少"
      ],
      [
        "为什么",
        "不能"
      ],
      [
        "谢",
        "谢"
      ],
      [
        "账",
        "户"
      ],
      [
        "扣款",
        "失败"
      ],
      [
        "还",
        "能"
      ],
      [
        "怎么",
        "操作"
      ],
      [
        "5",
        "000"
      ],
      [
        "能",
        "否"
      ],
      [
        "限",
        "额"
      ],
      [
        "微众银行",
        "审批要求"
      ],
      [
        "查",
        "询"
      ],
      [
        "没接到",
        "电话"
      ],
      [
        "还",
        "有"
      ],
      [
        "多久",
        "可以"
      ],
      [
        "通",
        "知"
      ],
      [
        "多",
        "次"
      ],
      [
        "a",
        "pp"
      ],
      [
        "要",
        "多久"
      ],
      [
        "系",
        "统"
      ],
      [
        ",",
        "2"
      ],
      [
        "资",
        "料"
      ],
      [
        "还",
        "钱"
      ],
      [
        "的",
        "卡"
      ],
      [
        "不好",
        "意思"
      ],
      [
        "不",
        "满足"
      ],
      [
        "老",
        "是"
      ],
      [
        "全部",
        "还清"
      ],
      [
        "审核",
        "电话"
      ],
      [
        "小",
        "时"
      ],
      [
        "受",
        "邀"
      ],
      [
        "个",
        "人"
      ],
      [
        "账",
        "号"
      ],
      [
        "借款",
        "吗"
      ],
      [
        "人",
        "工"
      ],
      [
        "什么",
        "时间"
      ],
      [
        "微信",
        "钱包"
      ],
      [
        "可",
        "不可以"
      ],
      [
        "可以",
        "用"
      ],
      [
        "放",
        "款"
      ],
      [
        "是",
        "怎么回事"
      ],
      [
        "贷款",
        "吗"
      ],
      [
        "第",
        "二"
      ],
      [
        "获",
        "得"
      ],
      [
        "0",
        "5"
      ],
      [
        "情",
        "况"
      ],
      [
        "继",
        "续"
      ],
      [
        "征",
        "信"
      ],
      [
        "过",
        "了"
      ],
      [
        "凌",
        "晨"
      ],
      [
        "每",
        "天"
      ],
      [
        "开",
        "始"
      ],
      [
        "看",
        "到"
      ],
      [
        "使用",
        "微粒贷"
      ],
      [
        "1",
        "2"
      ],
      [
        "几",
        "点"
      ],
      [
        "还款",
        "卡"
      ],
      [
        "到",
        "现在"
      ],
      [
        "还款",
        "后"
      ],
      [
        ".",
        "05"
      ],
      [
        "上",
        "面"
      ],
      [
        "开通",
        "了"
      ],
      [
        "我",
        "怎么"
      ],
      [
        "还款",
        "了"
      ],
      [
        "的",
        "微粒贷"
      ],
      [
        "都",
        "是"
      ],
      [
        "全",
        "额"
      ],
      [
        "借",
        "的"
      ],
      [
        "到",
        "期"
      ],
      [
        "还",
        "吗"
      ],
      [
        "利息",
        "吗"
      ],
      [
        "优惠",
        "券"
      ],
      [
        "打",
        "来"
      ],
      [
        "下",
        "午"
      ],
      [
        "借",
        "不"
      ],
      [
        "几",
        "号"
      ],
      [
        "不能",
        "用"
      ],
      [
        "两",
        "天"
      ],
      [
        "一",
        "样"
      ],
      [
        "何时",
        "会"
      ],
      [
        "只",
        "能"
      ],
      [
        "在",
        "哪里"
      ],
      [
        "要",
        "等"
      ],
      [
        "当",
        "天"
      ],
      [
        "消",
        "失"
      ],
      [
        "存",
        "款"
      ],
      [
        "我的",
        "微粒贷"
      ],
      [
        "朋",
        "友"
      ],
      [
        "1",
        "5"
      ],
      [
        "不",
        "要"
      ],
      [
        "你好",
        " "
      ],
      [
        "1",
        "7"
      ],
      [
        "开通",
        "不了"
      ],
      [
        "综合评估",
        "未通过"
      ],
      [
        "打",
        "过来"
      ],
      [
        "了",
        " "
      ],
      [
        "什么时候",
        "能"
      ],
      [
        "可",
        "是"
      ],
      [
        "什么",
        "意思"
      ],
      [
        "还款",
        "记录"
      ],
      [
        "进",
        "入"
      ],
      [
        "我想问",
        "一下"
      ],
      [
        "有",
        "没有"
      ],
      [
        "不能",
        "还款"
      ],
      [
        "我",
        "借"
      ],
      [
        "有",
        "什么"
      ],
      [
        "综合",
        "评分"
      ],
      [
        "扣",
        "钱"
      ],
      [
        "马",
        "上"
      ],
      [
        "我",
        "是"
      ],
      [
        "会",
        "不会"
      ],
      [
        "没",
        "通过"
      ],
      [
        "找",
        "不到"
      ],
      [
        "最",
        "高"
      ],
      [
        "我",
        "今天"
      ],
      [
        "为什么我",
        "没有"
      ],
      [
        "登录",
        "不了"
      ],
      [
        "可以",
        "提现"
      ],
      [
        "。",
        ",1\n"
      ],
      [
        "出",
        "现"
      ],
      [
        "资",
        "金"
      ],
      [
        "P",
        "P"
      ],
      [
        "延",
        "迟"
      ],
      [
        "限",
        "制"
      ],
      [
        "手",
        "续"
      ],
      [
        "帐",
        "单"
      ],
      [
        "利",
        "率"
      ],
      [
        "不",
        "足"
      ],
      [
        "页",
        "面"
      ],
      [
        "上",
        "午"
      ],
      [
        "。",
        ",0\n"
      ],
      [
        "动",
        "还款"
      ],
      [
        "提高",
        "额度"
      ],
      [
        "我",
        "有"
      ],
      [
        "我",
        "手机"
      ],
      [
        "每",
        "个月"
      ],
      [
        "A",
        "PP"
      ],
      [
        "提",
        "交"
      ],
      [
        "的",
        "时候"
      ],
      [
        "定",
        "期"
      ],
      [
        "不",
        "行"
      ],
      [
        "获",
        "取"
      ],
      [
        "我",
        "微信"
      ],
      [
        "解",
        "决"
      ],
      [
        "为什么",
        "借款"
      ],
      [
        "填",
        "写"
      ],
      [
        "？",
        ",1"
      ],
      [
        "身份信息",
        "输入错误"
      ],
      [
        "假",
        "如"
      ],
      [
        "原",
        "来"
      ],
      [
        "我想问",
        "下"
      ],
      [
        "注",
        "销"
      ],
      [
        "安",
        "全"
      ],
      [
        "利息",
        "是"
      ],
      [
        "块",
        "钱"
      ],
      [
        "怎么",
        "计算"
      ],
      [
        "一次性",
        "还清"
      ],
      [
        "提前",
        "还"
      ],
      [
        "绑定",
        "的"
      ],
      [
        "微",
        "利"
      ],
      [
        "转",
        "账"
      ],
      [
        "部",
        "分"
      ],
      [
        "的",
        "话"
      ],
      [
        "按",
        "时"
      ],
      [
        "这",
        "么"
      ],
      [
        "计",
        "息"
      ],
      [
        "算",
        "逾期"
      ],
      [
        "是什么",
        "原因"
      ],
      [
        "都",
        "没"
      ],
      [
        "处",
        "理"
      ],
      [
        "支付",
        "密码"
      ],
      [
        "有",
        "额度"
      ],
      [
        "提",
        "供"
      ],
      [
        "最",
        "后"
      ],
      [
        "打电话",
        "来"
      ],
      [
        "才",
        "会"
      ],
      [
        "0",
        ".05"
      ],
      [
        "第",
        "一次"
      ],
      [
        "核",
        "实"
      ],
      [
        "没有",
        "了"
      ],
      [
        "没",
        "额度"
      ],
      [
        "借",
        "的钱"
      ],
      [
        "为什么我的",
        "微粒贷"
      ],
      [
        "可以",
        "借"
      ],
      [
        "我",
        "提前还款"
      ],
      [
        "自",
        "己"
      ],
      [
        "那",
        "么"
      ],
      [
        "借不",
        "出来"
      ],
      [
        "成",
        "为"
      ],
      [
        "麻",
        "烦"
      ],
      [
        "因",
        "为"
      ],
      [
        "早",
        "上"
      ],
      [
        "罚",
        "息"
      ],
      [
        "微粒",
        "代"
      ],
      [
        "服",
        "务"
      ],
      [
        "怎么",
        "还没"
      ],
      [
        "取消",
        "吗"
      ],
      [
        "电话",
        "审核"
      ],
      [
        "用",
        "户"
      ],
      [
        "不",
        "知道"
      ],
      [
        "一",
        "张"
      ],
      [
        "接到",
        "电话"
      ],
      [
        "我",
        "在"
      ],
      [
        "认",
        "证"
      ],
      [
        "一",
        "期"
      ],
      [
        "银行",
        "的"
      ],
      [
        "不能",
        "借款"
      ],
      [
        "提",
        "额"
      ],
      [
        "手续",
        "费"
      ],
      [
        "不",
        "想"
      ],
      [
        "欠",
        "款"
      ],
      [
        "还款",
        "银行卡"
      ],
      [
        "怎么",
        "还款"
      ],
      [
        "多久",
        "能"
      ],
      [
        "提示",
        "我"
      ],
      [
        ",",
        "3"
      ],
      [
        "打",
        "开"
      ],
      [
        "一",
        "千"
      ],
      [
        "微利",
        "贷"
      ],
      [
        "公",
        "司"
      ],
      [
        "利息",
        "怎么算"
      ],
      [
        "了",
        "怎么办"
      ],
      [
        "定期",
        "存款"
      ],
      [
        "突",
        "然"
      ],
      [
        "这个",
        "功能"
      ],
      [
        "如何",
        "取消"
      ],
      [
        "打电话",
        "确认"
      ],
      [
        "业",
        "务"
      ],
      [
        "哪",
        "些"
      ],
      [
        "怎么",
        "才能"
      ],
      [
        " ",
        "怎么"
      ],
      [
        "咨",
        "询"
      ],
      [
        "收不到",
        "验证码"
      ],
      [
        "苹果",
        "手机"
      ],
      [
        "要等",
        "多久"
      ],
      [
        "几",
        "时"
      ],
      [
        "最",
        "多"
      ],
      [
        "借款",
        "申请"
      ],
      [
        "？",
        "？"
      ],
      [
        "自动",
        "还款"
      ],
      [
        "卡",
        "上"
      ],
      [
        "其他",
        "银行卡"
      ],
      [
        "的",
        "是"
      ],
      [
        "消失",
        "了"
      ],
      [
        "申请",
        "微粒贷"
      ],
      [
        "想",
        "问"
      ],
      [
        "还清",
        "了"
      ],
      [
        "借",
        "吗"
      ],
      [
        "一",
        "步"
      ],
      [
        "微",
        "贷"
      ],
      [
        "的",
        "手机"
      ],
      [
        "转",
        "出"
      ],
      [
        "我",
        "已经"
      ],
      [
        "这",
        "样"
      ],
      [
        "为什么",
        "有"
      ],
      [
        "提",
        "醒"
      ],
      [
        "没",
        "微粒贷"
      ],
      [
        "为什么",
        "一直"
      ],
      [
        "输",
        "错"
      ],
      [
        "登录",
        "不上"
      ],
      [
        "查看",
        "额度"
      ],
      [
        "下",
        "个月"
      ],
      [
        "为",
        "满足"
      ],
      [
        "日",
        "息"
      ],
      [
        "未满足",
        "微众银行审批要求"
      ],
      [
        "几",
        "次"
      ],
      [
        "2",
        "000"
      ],
      [
        "在",
        "哪"
      ],
      [
        "那",
        "里"
      ],
      [
        "钱包",
        "里"
      ],
      [
        "结清证明",
        "吗"
      ],
      [
        "为什么",
        "显示"
      ],
      [
        "延",
        "期"
      ],
      [
        "申请",
        "借款后"
      ],
      [
        "打电话",
        "过来"
      ],
      [
        "2",
        "1"
      ],
      [
        "贷",
        "吗"
      ],
      [
        "我",
        "需要"
      ],
      [
        "不",
        "需要"
      ],
      [
        "借",
        "不了"
      ],
      [
        "比",
        "如"
      ],
      [
        "3",
        "000"
      ],
      [
        "用",
        "微信"
      ],
      [
        "取现",
        "金"
      ],
      [
        "所",
        "有"
      ],
      [
        "用",
        "了"
      ],
      [
        "名",
        "额"
      ],
      [
        "！",
        ",1\n"
      ],
      [
        "开不了",
        "户"
      ],
      [
        "一般",
        "多久"
      ],
      [
        "我的",
        "额度"
      ],
      [
        "会",
        "有"
      ],
      [
        "解",
        "除"
      ],
      [
        "违",
        "约"
      ],
      [
        "现在",
        "不能"
      ],
      [
        "?",
        ","
      ],
      [
        "笔",
        "借款"
      ],
      [
        "取消",
        "微粒贷"
      ],
      [
        "流",
        "水"
      ],
      [
        "办",
        "理"
      ],
      [
        "晚",
        "上"
      ],
      [
        "微粒贷",
        "图标"
      ],
      [
        "借款",
        "了"
      ],
      [
        "还没",
        "到账"
      ],
      [
        "联系",
        "我"
      ],
      [
        "红",
        "包"
      ],
      [
        "！",
        ",0\n"
      ],
      [
        "微信",
        "里"
      ],
      [
        "，",
        ","
      ],
      [
        "提升",
        "额度"
      ],
      [
        "转",
        "入"
      ],
      [
        "借款",
        "期限"
      ],
      [
        "不",
        "过"
      ],
      [
        "为什么",
        "不"
      ],
      [
        "何时会",
        "邀请我"
      ],
      [
        "可",
        "否"
      ],
      [
        "忘",
        "记"
      ],
      [
        "我",
        "没有"
      ],
      [
        "然",
        "后"
      ],
      [
        "达",
        "到"
      ],
      [
        "邀请",
        "的"
      ],
      [
        "出来",
        "吗"
      ],
      [
        "撤",
        "销"
      ],
      [
        "什么",
        "原因"
      ],
      [
        "银行",
        "电话"
      ],
      [
        "也",
        "没"
      ],
      [
        "借款",
        "额度"
      ],
      [
        "正",
        "常"
      ],
      [
        "充",
        "足"
      ],
      [
        "介",
        "绍"
      ],
      [
        "1",
        "8"
      ],
      [
        "万",
        "元"
      ],
      [
        "还款",
        "的"
      ],
      [
        "期",
        "还"
      ],
      [
        "菜",
        "单"
      ],
      [
        "什么",
        "条件"
      ],
      [
        "逾期",
        "一天"
      ],
      [
        "借款",
        "成功"
      ],
      [
        "为何",
        "我"
      ],
      [
        "再借",
        "吗"
      ],
      [
        "本",
        "金"
      ],
      [
        "微众银行",
        "的"
      ],
      [
        "消",
        "息"
      ],
      [
        "用",
        "于"
      ],
      [
        "审核",
        "不通过"
      ],
      [
        "以前",
        "的"
      ],
      [
        "卡里",
        "有钱"
      ],
      [
        "还款日",
        "是"
      ],
      [
        "怎么",
        "改"
      ],
      [
        "回",
        "复"
      ],
      [
        "为什么",
        "还"
      ],
      [
        "下",
        "来"
      ],
      [
        "无法",
        "借钱"
      ],
      [
        "借款",
        "的"
      ],
      [
        "交",
        "易"
      ],
      [
        "申请",
        "后"
      ],
      [
        "下",
        "次"
      ],
      [
        "必",
        "须"
      ],
      [
        "腾",
        "讯"
      ],
      [
        "不是",
        "说"
      ],
      [
        "的利息",
        "是多少"
      ],
      [
        "都",
        "没有"
      ],
      [
        "审核",
        "未通过"
      ],
      [
        "升",
        "额度"
      ],
      [
        "活",
        "动"
      ],
      [
        "需要",
        "多久"
      ],
      [
        "十",
        "个月"
      ],
      [
        "再",
        "打"
      ],
      [
        "用",
        "吗"
      ],
      [
        "掉",
        "了"
      ],
      [
        "违约",
        "金"
      ],
      [
        "怎么",
        "用"
      ],
      [
        "一笔",
        "借款"
      ],
      [
        "额度",
        "会"
      ],
      [
        "一",
        "年"
      ],
      [
        "我",
        "刚才"
      ],
      [
        "等待",
        "电话确认"
      ],
      [
        "1",
        "6"
      ],
      [
        "微信",
        "号"
      ],
      [
        "还清",
        "证明"
      ],
      [
        "  ",
        " "
      ],
      [
        "身份证",
        "号"
      ],
      [
        "是",
        "还款日"
      ],
      [
        "就",
        "可以"
      ],
      [
        "卡",
        "号"
      ],
      [
        "找",
        "到"
      ],
      [
        "标",
        "准"
      ],
      [
        "没有",
        "扣款"
      ],
      [
        "银行",
        "审批要求"
      ],
      [
        "我的",
        "银行卡"
      ],
      [
        "扣",
        "除"
      ],
      [
        "的",
        "借款"
      ],
      [
        "会",
        "影响"
      ],
      [
        "到",
        "了"
      ],
      [
        "天",
        "免息"
      ],
      [
        "微粒",
        "袋"
      ],
      [
        "无法",
        "查看额度"
      ],
      [
        "合",
        "同"
      ],
      [
        "微众银行",
        "审批"
      ],
      [
        "未满足",
        "审批要求"
      ],
      [
        "两",
        "次"
      ],
      [
        "可",
        "借"
      ],
      [
        "进",
        "行"
      ],
      [
        "支付",
        "宝"
      ],
      [
        "下",
        "一步"
      ],
      [
        "大",
        "概"
      ],
      [
        "活",
        "期"
      ],
      [
        "怎么",
        "关闭"
      ],
      [
        "可以",
        "取现"
      ],
      [
        "4",
        "000"
      ],
      [
        "o",
        "n"
      ],
      [
        "日",
        "利息"
      ],
      [
        "没",
        "收到"
      ],
      [
        "给我",
        "打电话"
      ],
      [
        "正",
        "确"
      ],
      [
        "点",
        "前"
      ],
      [
        "还",
        "要"
      ],
      [
        "我",
        "之前"
      ],
      [
        "的",
        "额度"
      ],
      [
        "还",
        "会"
      ],
      [
        "我",
        "为什么"
      ],
      [
        "\"",
        "\""
      ],
      [
        "主",
        "动还款"
      ],
      [
        "怎么",
        "开通"
      ],
      [
        "一次",
        "还清"
      ],
      [
        "一",
        "定"
      ],
      [
        "不",
        "对"
      ],
      [
        "如何",
        "获得"
      ],
      [
        "手机",
        "上"
      ],
      [
        "身份证",
        "号码"
      ],
      [
        "登陆",
        "不了"
      ],
      [
        "on",
        "e"
      ],
      [
        "\"",
        ","
      ],
      [
        "粒",
        "贷"
      ],
      [
        "产",
        "品"
      ],
      [
        ",1",
        "0"
      ],
      [
        "现在",
        "可以"
      ],
      [
        "0.05",
        "%"
      ],
      [
        "什么时候",
        "会"
      ],
      [
        "存",
        "钱"
      ],
      [
        "款",
        "吗"
      ],
      [
        "没",
        "到账"
      ],
      [
        "点",
        "击"
      ],
      [
        "身份",
        "验证"
      ],
      [
        "可以提现",
        "吗"
      ],
      [
        "3",
        "0"
      ],
      [
        "不",
        "支持"
      ],
      [
        "收",
        "取"
      ],
      [
        "是",
        "什么时候"
      ],
      [
        ",1",
        "0000"
      ],
      [
        "得",
        "到"
      ],
      [
        "我",
        "能"
      ],
      [
        "转",
        "到"
      ],
      [
        "为什么",
        "说我"
      ],
      [
        "一万",
        "元"
      ],
      [
        "信用卡",
        "吗"
      ],
      [
        "太",
        "多"
      ],
      [
        "绑",
        "卡"
      ],
      [
        "银行",
        "预留"
      ],
      [
        "身份信息输入错误",
        "次数过多"
      ],
      [
        "行",
        "卡"
      ],
      [
        "还款卡",
        "号"
      ],
      [
        "理",
        "财"
      ],
      [
        "网",
        "络"
      ],
      [
        "还款",
        "成功"
      ],
      [
        "更换",
        "手机号"
      ],
      [
        "降低",
        "额度"
      ],
      [
        "信用",
        "额度"
      ],
      [
        "也",
        "没有"
      ],
      [
        "如何",
        "还款"
      ],
      [
        "不能",
        "借钱"
      ],
      [
        "丢",
        "了"
      ],
      [
        "更改",
        "了"
      ],
      [
        "无法",
        "登陆"
      ],
      [
        "h",
        "one"
      ],
      [
        "把",
        "钱"
      ],
      [
        "日",
        "利率"
      ],
      [
        "为什么",
        "总是"
      ],
      [
        "个",
        "小时"
      ],
      [
        "凭",
        "证"
      ],
      [
        "听",
        "到"
      ],
      [
        "帐",
        "号"
      ],
      [
        "期",
        "还款"
      ],
      [
        "解",
        "绑"
      ],
      [
        "号",
        "还款"
      ],
      [
        "客",
        "人"
      ],
      [
        "款",
        "项"
      ],
      [
        "怎么",
        "不"
      ],
      [
        "是否",
        "可以"
      ],
      [
        "单",
        "笔"
      ],
      [
        "发",
        "送"
      ],
      [
        "可以",
        "在"
      ],
      [
        "你好",
        "我"
      ],
      [
        "今天",
        "借"
      ],
      [
        "四",
        "位"
      ],
      [
        "申请",
        "借款"
      ],
      [
        "微信钱包",
        "里"
      ],
      [
        "一",
        "共"
      ],
      [
        "换",
        "手机号"
      ],
      [
        "五",
        "个月"
      ],
      [
        "没有",
        "通过"
      ],
      [
        "次",
        "借款"
      ],
      [
        "打电话",
        "给我"
      ],
      [
        "余额",
        "充足"
      ],
      [
        "帐",
        "户"
      ],
      [
        "了",
        "解"
      ],
      [
        "还款",
        "银行"
      ],
      [
        "为什么",
        "没有微粒贷"
      ],
      [
        "应",
        "该"
      ],
      [
        "方",
        "式"
      ],
      [
        "逾期",
        "了"
      ],
      [
        "一",
        "部分"
      ],
      [
        "过",
        "去"
      ],
      [
        "额度",
        "没有"
      ],
      [
        "别",
        "人"
      ],
      [
        "借款后",
        "多久"
      ],
      [
        "可以",
        "取"
      ],
      [
        "受邀",
        "客户"
      ],
      [
        "没有接到",
        "电话"
      ],
      [
        "不用",
        "了"
      ],
      [
        "怎么",
        "申请"
      ],
      [
        "行",
        "吗"
      ],
      [
        "怎么",
        "还没有"
      ],
      [
        "一般",
        "多长时间"
      ],
      [
        "无法",
        "登录"
      ],
      [
        "没",
        "成功"
      ],
      [
        "还",
        "上"
      ],
      [
        ",1",
        "7"
      ],
      [
        "如何",
        "修改"
      ],
      [
        "我",
        "朋友"
      ],
      [
        "用",
        "途"
      ],
      [
        "老",
        "板"
      ],
      [
        "提前还款",
        "吗"
      ],
      [
        "不",
        "开"
      ],
      [
        "为什么",
        "现在"
      ],
      [
        "1",
        "."
      ],
      [
        "到",
        "我"
      ],
      [
        "还款日期",
        "吗"
      ],
      [
        "剩",
        "余"
      ],
      [
        "工",
        "资"
      ],
      [
        "的",
        "手机号码"
      ],
      [
        "能",
        "借"
      ],
      [
        "还款",
        "时间"
      ],
      [
        "输入",
        "密码"
      ],
      [
        "办",
        "法"
      ],
      [
        "后",
        "面"
      ],
      [
        "开",
        "结清证明"
      ],
      [
        "是",
        "多久"
      ],
      [
        "一天",
        "多少"
      ],
      [
        "全额",
        "还款"
      ],
      [
        "算逾期",
        "吗"
      ],
      [
        "付",
        "通"
      ],
      [
        "期",
        "的"
      ],
      [
        "财",
        "付通"
      ],
      [
        "如何",
        "更换"
      ],
      [
        "身份信息",
        "错误"
      ],
      [
        ",",
        "\""
      ],
      [
        "后",
        "可以"
      ],
      [
        "这",
        "个月"
      ],
      [
        "申请",
        "吗"
      ],
      [
        "?",
        ",0\n"
      ],
      [
        "咋",
        "样"
      ],
      [
        "或",
        "者"
      ],
      [
        "  ",
        "  "
      ],
      [
        "不",
        "够"
      ],
      [
        "我",
        "昨天"
      ],
      [
        "要",
        "还"
      ],
      [
        "可以",
        "取消吗"
      ],
      [
        "输入",
        "验证码"
      ],
      [
        "就",
        "没"
      ],
      [
        "手",
        "动还款"
      ],
      [
        "重新",
        "绑定"
      ],
      [
        "第二",
        "天"
      ],
      [
        "了",
        "呢"
      ],
      [
        "任",
        "何"
      ],
      [
        "别",
        "的银行卡"
      ],
      [
        "扣",
        "了"
      ],
      [
        "换",
        "手机号码"
      ],
      [
        "可以申请",
        "吗"
      ],
      [
        "后",
        "四位"
      ],
      [
        "星",
        "期"
      ],
      [
        "取消",
        "贷款"
      ],
      [
        "审批",
        "条件"
      ],
      [
        "可以",
        "更改"
      ],
      [
        "一天",
        "还款"
      ],
      [
        "1",
        ":"
      ],
      [
        "2",
        "4"
      ],
      [
        "不",
        "一样"
      ],
      [
        "从",
        "新"
      ],
      [
        "国",
        "华"
      ],
      [
        "抢",
        "购"
      ],
      [
        "怎么",
        "不能"
      ],
      [
        "先",
        "还"
      ],
      [
        "？",
        " "
      ],
      [
        "电话",
        "没接到"
      ],
      [
        "我的",
        "微信"
      ],
      [
        "借的",
        "款"
      ],
      [
        "1",
        "500"
      ],
      [
        "每",
        "次"
      ],
      [
        "信息",
        "错误"
      ],
      [
        "为什么",
        "微粒贷"
      ],
      [
        "按时",
        "还款"
      ],
      [
        "只",
        "有"
      ],
      [
        "三",
        "天"
      ],
      [
        "多",
        "钱"
      ],
      [
        "的",
        "银行"
      ],
      [
        "怎么",
        "修改"
      ],
      [
        "影响",
        "吗"
      ],
      [
        "是",
        "为什么"
      ],
      [
        "注",
        "册"
      ],
      [
        "重",
        "复"
      ],
      [
        "错",
        "了"
      ],
      [
        "怎么",
        "弄"
      ],
      [
        "银行卡",
        "绑定"
      ],
      [
        "一般",
        "什么时候"
      ],
      [
        "微众",
        "卡"
      ],
      [
        "商",
        "银行"
      ],
      [
        "啥",
        "时候"
      ],
      [
        "购",
        "买"
      ],
      [
        "微粒贷",
        "借款"
      ],
      [
        "多久",
        "才能"
      ],
      [
        "余额",
        "不足"
      ],
      [
        "丢",
        "失"
      ],
      [
        "但是",
        "我"
      ],
      [
        "1",
        "9"
      ],
      [
        "其",
        "它"
      ],
      [
        "安",
        "卓"
      ],
      [
        "帮",
        "忙"
      ],
      [
        "请",
        "求"
      ],
      [
        "我的",
        "手机"
      ],
      [
        "关",
        "注"
      ],
      [
        "回",
        "访"
      ],
      [
        ",1",
        "000"
      ],
      [
        "还款",
        "期"
      ],
      [
        "为啥",
        "我"
      ],
      [
        "删",
        "除"
      ],
      [
        "未",
        "接到"
      ],
      [
        "如何",
        "改"
      ],
      [
        "开通",
        "微粒"
      ],
      [
        "提前还款",
        "后"
      ],
      [
        "一定",
        "要"
      ],
      [
        "没",
        "扣"
      ],
      [
        "都",
        "有"
      ],
      [
        "最",
        "低"
      ],
      [
        "设",
        "置"
      ],
      [
        "我",
        "不"
      ],
      [
        "错",
        "过了"
      ],
      [
        "申请",
        "贷款"
      ],
      [
        "一",
        "份"
      ],
      [
        "姓",
        "名"
      ],
      [
        "版",
        "本"
      ],
      [
        "微信",
        "零钱"
      ],
      [
        "怎样",
        "才能"
      ],
      [
        ",",
        "5"
      ],
      [
        "我",
        "银行卡"
      ],
      [
        "的",
        "手机号"
      ],
      [
        "能",
        "用"
      ],
      [
        "借钱",
        "失败"
      ],
      [
        "第二",
        "次"
      ],
      [
        "微粒贷",
        "是"
      ],
      [
        "什么时候",
        "才能"
      ],
      [
        "扣款",
        "不成功"
      ],
      [
        "元",
        "一天"
      ],
      [
        "我",
        "借款"
      ],
      [
        "齐",
        "鲁"
      ],
      [
        "怎么",
        "没有微粒贷"
      ],
      [
        "怎么没",
        "微粒贷"
      ],
      [
        "不能用",
        "于"
      ],
      [
        "2",
        "3"
      ],
      [
        "我",
        "还款"
      ],
      [
        "什么",
        "是"
      ],
      [
        "如何",
        "开通"
      ],
      [
        "需要",
        "什么"
      ],
      [
        "的",
        "款"
      ],
      [
        "扣款",
        "吗"
      ],
      [
        "显示",
        "综合评估未通过"
      ],
      [
        "为什么",
        "说"
      ],
      [
        "为什么",
        "今天"
      ],
      [
        "电话",
        "核实"
      ],
      [
        "请问",
        "我"
      ],
      [
        "优惠",
        "卷"
      ],
      [
        "在",
        "吗"
      ],
      [
        "窗",
        "口"
      ],
      [
        "邮",
        "政"
      ],
      [
        "提前还清",
        "了"
      ],
      [
        "1",
        "00"
      ],
      [
        "好",
        "久"
      ],
      [
        "打",
        "了"
      ],
      [
        "还款",
        "证明"
      ],
      [
        "为什么我",
        "借款"
      ],
      [
        "取消借款",
        "吗"
      ],
      [
        "下",
        "月"
      ],
      [
        "还",
        "不了"
      ],
      [
        "5",
        "0"
      ],
      [
        "建",
        "设"
      ],
      [
        "快",
        "点"
      ],
      [
        "被",
        "盗"
      ],
      [
        "今天",
        "借款"
      ],
      [
        "已",
        "还清"
      ],
      [
        "接",
        "听"
      ],
      [
        "可以",
        "改"
      ],
      [
        "手机",
        "没"
      ],
      [
        "一直",
        "没有"
      ],
      [
        "充",
        "值"
      ],
      [
        "我",
        "问"
      ],
      [
        "还",
        "未"
      ],
      [
        "是多少",
        "钱"
      ],
      [
        "是什么",
        "情况"
      ],
      [
        "再",
        "贷"
      ],
      [
        "开",
        "个"
      ],
      [
        "更",
        "新"
      ],
      [
        "的",
        "电话"
      ],
      [
        "分期",
        "还款"
      ],
      [
        "次数",
        "太多"
      ],
      [
        "不",
        "给我"
      ],
      [
        "完",
        "成"
      ],
      [
        "一张",
        "卡"
      ],
      [
        "投",
        "资"
      ],
      [
        "被",
        "邀请"
      ],
      [
        "到",
        "银行卡"
      ],
      [
        "要",
        "还多少"
      ],
      [
        "登陆",
        "不上"
      ],
      [
        "我",
        "把"
      ],
      [
        "领",
        "取"
      ],
      [
        "还完",
        "了"
      ],
      [
        "信",
        "号"
      ],
      [
        "界",
        "面"
      ],
      [
        "额度",
        "吗"
      ],
      [
        "开通",
        " "
      ],
      [
        "2",
        "8"
      ],
      [
        "两",
        "笔"
      ],
      [
        "我",
        "没接到"
      ],
      [
        "可以",
        "提"
      ],
      [
        "电话",
        "多少"
      ],
      [
        "里面",
        "没有微粒贷"
      ],
      [
        "预留",
        "手机号"
      ],
      [
        "何时会邀请我",
        "使用微粒贷"
      ],
      [
        "6",
        "000"
      ],
      [
        "贷",
        "了"
      ],
      [
        "开通",
        "吗"
      ],
      [
        "什么时候",
        "再"
      ],
      [
        "个人",
        "信息"
      ],
      [
        "登",
        "不上"
      ],
      [
        "的",
        "问题"
      ],
      [
        "借钱",
        "吗"
      ],
      [
        "更换",
        "了"
      ],
      [
        "我",
        "刚"
      ],
      [
        "还没",
        "扣款"
      ],
      [
        "我",
        "们"
      ],
      [
        "的",
        "还款"
      ],
      [
        "让",
        "我"
      ],
      [
        "选",
        "择"
      ],
      [
        "怎么",
        "处理"
      ],
      [
        "提前还清",
        "借款"
      ],
      [
        "手续费",
        "吗"
      ],
      [
        "关",
        "掉"
      ],
      [
        "发",
        "验证码"
      ],
      [
        "我",
        "都"
      ],
      [
        "正",
        "在"
      ],
      [
        "还",
        "信用卡吗"
      ],
      [
        "闪",
        "退"
      ],
      [
        "什么",
        "银行"
      ],
      [
        ",",
        "4"
      ],
      [
        "也",
        "是"
      ],
      [
        "干",
        "嘛"
      ],
      [
        "收",
        "费"
      ],
      [
        "稳",
        "固"
      ],
      [
        "看不到",
        "额度"
      ],
      [
        "怎么样",
        "才能"
      ],
      [
        "齐鲁",
        "稳固"
      ],
      [
        "就",
        "不能"
      ],
      [
        "软",
        "件"
      ],
      [
        "，",
        ",1\n"
      ],
      [
        "可以",
        "借款"
      ],
      [
        "银行",
        "审批"
      ],
      [
        "显示",
        "我"
      ],
      [
        "算",
        "利息"
      ],
      [
        "怎么",
        "不见了"
      ],
      [
        "申请",
        "成功"
      ],
      [
        "通过",
        "审批"
      ],
      [
        "一样",
        "吗"
      ],
      [
        "\"",
        ",1\n"
      ],
      [
        "1",
        "1"
      ],
      [
        "借",
        "到"
      ],
      [
        "及",
        "时"
      ],
      [
        "和",
        "微信"
      ],
      [
        "开",
        "具"
      ],
      [
        "忘",
        "了"
      ],
      [
        "才",
        "有"
      ],
      [
        "收",
        "益"
      ],
      [
        "还",
        "不"
      ],
      [
        "我的",
        "贷款"
      ],
      [
        "借钱",
        "了"
      ],
      [
        "怎样",
        "更改"
      ],
      [
        "这么",
        "久"
      ],
      [
        "取现金",
        "吗"
      ],
      [
        "天",
        "天"
      ],
      [
        "期",
        "账单"
      ],
      [
        "的",
        "电话号码"
      ],
      [
        "借款",
        " "
      ],
      [
        "提前还款",
        "了"
      ],
      [
        "分",
        "之"
      ],
      [
        "号",
        "凌晨"
      ],
      [
        "太",
        "平"
      ],
      [
        "昨",
        "晚"
      ],
      [
        "错",
        "过"
      ],
      [
        "怎么",
        "会"
      ],
      [
        "贷款",
        "结清证明"
      ],
      [
        "几点",
        "扣款"
      ],
      [
        "可以",
        "给我"
      ],
      [
        "请问",
        "一下"
      ],
      [
        "下",
        "款"
      ],
      [
        "产",
        "生"
      ],
      [
        "工",
        "作"
      ],
      [
        "有",
        "限额"
      ],
      [
        "怎么",
        "我"
      ],
      [
        "我的",
        "借款"
      ],
      [
        "这",
        "功能"
      ],
      [
        ",1",
        "5"
      ],
      [
        "为什么",
        "还没有"
      ],
      [
        "如何",
        "才能"
      ],
      [
        "今天",
        "是还款日"
      ],
      [
        "一直",
        "没"
      ],
      [
        "好",
        "了"
      ],
      [
        "月",
        "份"
      ],
      [
        "确",
        "定"
      ],
      [
        "赎",
        "回"
      ],
      [
        "i",
        "p"
      ],
      [
        "人",
        "品"
      ],
      [
        "换",
        "手机"
      ],
      [
        "日",
        "利息多少"
      ],
      [
        "什么",
        "情况"
      ],
      [
        "限制",
        "吗"
      ],
      [
        "具",
        "体"
      ],
      [
        "告",
        "诉"
      ],
      [
        "最",
        "近"
      ],
      [
        "人",
        "行"
      ],
      [
        "几",
        "个"
      ],
      [
        "我",
        "如果"
      ],
      [
        "用",
        "微粒贷"
      ],
      [
        "这",
        "里"
      ],
      [
        "审批",
        "不通过"
      ],
      [
        "身份证",
        "后四位"
      ],
      [
        "短信",
        "验证码"
      ],
      [
        "微众银行的",
        "审批要求"
      ],
      [
        "打",
        "不开"
      ],
      [
        "添",
        "加"
      ],
      [
        "点",
        "之前"
      ],
      [
        "的",
        "啊"
      ],
      [
        "足",
        "够"
      ],
      [
        "为什么",
        "没"
      ],
      [
        "失败",
        "呢"
      ],
      [
        "个月",
        "还款"
      ],
      [
        "审核",
        "失败"
      ],
      [
        "我想",
        "把"
      ],
      [
        "2",
        "2"
      ],
      [
        "4",
        "0000"
      ],
      [
        "出",
        "具"
      ],
      [
        "本",
        "人"
      ],
      [
        "申请",
        "不了"
      ],
      [
        "显示",
        "微粒贷"
      ],
      [
        "自动",
        "还款失败"
      ],
      [
        "客服",
        "电话号码"
      ],
      [
        "想问",
        "下"
      ],
      [
        "2",
        "500"
      ],
      [
        "上",
        "次"
      ],
      [
        "不",
        "借了"
      ],
      [
        "主",
        "动"
      ],
      [
        "只",
        "是"
      ],
      [
        "微粒贷",
        "入口"
      ],
      [
        "个月",
        "还"
      ],
      [
        "明天",
        "还"
      ],
      [
        "付",
        "款"
      ],
      [
        "借",
        "过"
      ],
      [
        "我",
        "用"
      ],
      [
        "1",
        "3"
      ],
      [
        "两",
        "个"
      ],
      [
        "可",
        "能"
      ],
      [
        ",0",
        ".05"
      ],
      [
        "银行",
        "电话确认"
      ],
      [
        "如何",
        "关闭"
      ],
      [
        "扣款",
        "啊"
      ],
      [
        "身份证",
        "输入错误"
      ],
      [
        "一次性",
        "还款"
      ],
      [
        "怎么算",
        "利息"
      ],
      [
        "成为",
        "微粒贷"
      ],
      [
        "致",
        "电"
      ],
      [
        "现在",
        "怎么"
      ],
      [
        "为什么我的",
        "借款"
      ],
      [
        "我",
        "申请"
      ],
      [
        "扣",
        "费"
      ],
      [
        "，",
        ",0\n"
      ],
      [
        "怎么",
        "可以"
      ],
      [
        "可以",
        "直接"
      ],
      [
        "你好",
        " 我"
      ],
      [
        "一般",
        "会"
      ],
      [
        "为什么",
        "无法"
      ],
      [
        "为什么",
        "还没"
      ],
      [
        "农",
        "业"
      ],
      [
        "反",
        "应"
      ],
      [
        "在",
        "借款"
      ],
      [
        "为什么我",
        "没有微粒贷"
      ],
      [
        "一",
        "点"
      ],
      [
        "微",
        "立"
      ],
      [
        "息",
        "是多少"
      ],
      [
        "能",
        "取消吗"
      ],
      [
        "额度",
        "是"
      ],
      [
        "扣款",
        "呢"
      ],
      [
        "借不出来",
        "了"
      ],
      [
        "邀请的",
        "客人"
      ],
      [
        "?",
        ",1\n"
      ],
      [
        "一",
        "起"
      ],
      [
        "七",
        "天免息"
      ],
      [
        "后",
        "来"
      ],
      [
        "结",
        "果"
      ],
      [
        "？",
        "？,"
      ],
      [
        "你好",
        "  "
      ],
      [
        "如何",
        "计算"
      ],
      [
        "为什么我的",
        "微信"
      ],
      [
        "帮我",
        "取消"
      ],
      [
        "人",
        "员"
      ],
      [
        "所",
        "以"
      ],
      [
        "费",
        "用"
      ],
      [
        "风",
        "险"
      ],
      [
        ",1",
        ":"
      ],
      [
        "为什么我",
        "没有额度"
      ],
      [
        "无法",
        "还款"
      ],
      [
        "这个",
        "微粒贷"
      ],
      [
        "全额",
        "还款后"
      ],
      [
        "我",
        "什么时候可以"
      ],
      [
        "是",
        "吗"
      ],
      [
        "还款",
        "是"
      ],
      [
        "为什么",
        "没有额度"
      ],
      [
        "为什么我",
        "不能"
      ],
      [
        "恢复",
        "额度"
      ],
      [
        "钱",
        "了"
      ],
      [
        "怎么",
        "计息"
      ],
      [
        "没有",
        "收到"
      ],
      [
        "手机",
        "验证码"
      ],
      [
        "假如",
        "我"
      ],
      [
        ",",
        "7"
      ],
      [
        "借",
        "几天"
      ],
      [
        "分",
        "几"
      ],
      [
        "在",
        "借"
      ],
      [
        "就",
        "能"
      ],
      [
        "授",
        "信"
      ],
      [
        "日",
        "常"
      ],
      [
        "非",
        "法"
      ],
      [
        "可以",
        "再"
      ],
      [
        "没有",
        "成功"
      ],
      [
        "一般",
        "审核"
      ],
      [
        "再次",
        "借款"
      ],
      [
        "还钱",
        "吗"
      ],
      [
        "人行",
        "征信"
      ],
      [
        "不",
        "算逾期"
      ],
      [
        "怎么",
        "更换"
      ],
      [
        "如何",
        "提升"
      ],
      [
        "开通",
        "啊"
      ],
      [
        "借钱",
        "功能"
      ],
      [
        "提示",
        "还款失败"
      ],
      [
        "是",
        "啥"
      ],
      [
        "月",
        "月"
      ],
      [
        "流",
        "泪"
      ],
      [
        "的",
        "号码"
      ],
      [
        "什么时候",
        "还"
      ],
      [
        "可以取现",
        "吗"
      ],
      [
        "8",
        "000"
      ],
      [
        "循",
        "环"
      ],
      [
        "暂",
        "时"
      ],
      [
        "有",
        "吗"
      ],
      [
        "的",
        "原因"
      ],
      [
        "，",
        "，"
      ],
      [
        "如何",
        "查询"
      ],
      [
        "什么时候",
        "还款"
      ],
      [
        "我想",
        "咨询"
      ],
      [
        "进去",
        "了"
      ],
      [
        "发",
        "放"
      ],
      [
        "手",
        "动"
      ],
      [
        "元",
        "分"
      ],
      [
        "去",
        "银行"
      ],
      [
        "当",
        "月"
      ],
      [
        "点",
        "多"
      ],
      [
        "怎么",
        "换"
      ],
      [
        "还清",
        "贷款"
      ],
      [
        "为什么我",
        "没"
      ],
      [
        "邀请",
        "客户"
      ],
      [
        "信用",
        "度"
      ],
      [
        "有微粒贷",
        "的"
      ],
      [
        "开通微粒贷",
        "吗"
      ],
      [
        "建设",
        "银行"
      ],
      [
        "借",
        "据"
      ],
      [
        "储",
        "蓄"
      ],
      [
        "实",
        "名"
      ],
      [
        "日",
        "期"
      ],
      [
        "为什么我",
        "一直"
      ],
      [
        "卡上",
        "有钱"
      ],
      [
        "微",
        "米"
      ],
      [
        "明",
        "细"
      ],
      [
        "还",
        "的"
      ],
      [
        "怎么办",
        "理"
      ],
      [
        "评估",
        "不通过"
      ],
      [
        ",",
        "/"
      ],
      [
        "存",
        "在"
      ],
      [
        "完",
        "了"
      ],
      [
        "提",
        "额度"
      ],
      [
        "为什么",
        "要"
      ],
      [
        "输入",
        "支付密码"
      ],
      [
        "人工",
        "服务"
      ],
      [
        "人品",
        "值"
      ],
      [
        "3",
        "#"
      ],
      [
        "。",
        "。"
      ],
      [
        "再",
        "借款"
      ],
      [
        "现",
        "金"
      ],
      [
        "微粒贷",
        "吗"
      ],
      [
        "里面",
        "没有"
      ],
      [
        "变更",
        "了"
      ],
      [
        "推迟",
        "几天"
      ],
      [
        "开通了",
        "微粒贷"
      ],
      [
        "中",
        "国"
      ],
      [
        "了",
        "还没"
      ],
      [
        "多",
        "笔借款"
      ],
      [
        "何时",
        "能"
      ],
      [
        "再次",
        "扣款"
      ],
      [
        "我提前还款",
        "了"
      ],
      [
        "息",
        "多少"
      ],
      [
        "我",
        "申请了"
      ],
      [
        "可以",
        "贷款"
      ],
      [
        "可以",
        "提前还款吗"
      ],
      [
        "我的",
        "钱"
      ],
      [
        "微信",
        "支付"
      ],
      [
        "\"",
        ",0\n"
      ],
      [
        "了",
        "银行卡"
      ],
      [
        "众",
        "享"
      ],
      [
        "农",
        "行"
      ],
      [
        "工",
        "商银行"
      ],
      [
        "方",
        "便"
      ],
      [
        "还款",
        "不成功"
      ],
      [
        "为什么",
        "借钱"
      ],
      [
        "失败",
        "了"
      ],
      [
        "绑定",
        "卡"
      ],
      [
        "我想",
        "关闭微粒贷"
      ],
      [
        "如何更改",
        "还款"
      ],
      [
        "如何提升",
        "额"
      ],
      [
        " ",
        "微粒贷"
      ],
      [
        "2",
        "5"
      ],
      [
        "i",
        "P"
      ],
      [
        "去",
        "了"
      ],
      [
        "发",
        "到"
      ],
      [
        "号",
        "借款"
      ],
      [
        "点",
        "了"
      ],
      [
        "项",
        "目"
      ],
      [
        "如何",
        "申请"
      ],
      [
        "一直",
        "在"
      ],
      [
        "9",
        "0"
      ],
      [
        "不",
        "在"
      ],
      [
        "会",
        "打电话"
      ],
      [
        "存",
        "入"
      ],
      [
        "能",
        "通过"
      ],
      [
        "电话",
        "是多少"
      ],
      [
        "不能",
        "通过"
      ],
      [
        "我想",
        "知道"
      ],
      [
        "自动",
        "扣除"
      ],
      [
        "收到",
        "验证码"
      ],
      [
        "一个",
        "结清证明"
      ],
      [
        "未",
        "达到"
      ],
      [
        "为什么",
        "还是"
      ],
      [
        "可以",
        "换"
      ],
      [
        "可以",
        "贷"
      ],
      [
        "什么时候",
        "扣款"
      ],
      [
        "提前",
        "还完"
      ],
      [
        "没有微粒贷",
        "啊"
      ],
      [
        "一次性",
        "还完"
      ],
      [
        "怎么算",
        "的"
      ],
      [
        "申请的",
        "贷款"
      ],
      [
        "多次",
        "输入错误"
      ],
      [
        "天天",
        "利"
      ],
      [
        "加",
        "入"
      ],
      [
        "目",
        "前"
      ],
      [
        "超",
        "过"
      ],
      [
        "为什么",
        "老是"
      ],
      [
        "你们",
        "这个"
      ],
      [
        "提现",
        "吗"
      ],
      [
        "看不到",
        "微粒贷"
      ],
      [
        "号",
        "还款日"
      ],
      [
        "对",
        "吗"
      ],
      [
        "对",
        "我"
      ],
      [
        "我",
        "说"
      ],
      [
        "没",
        "法"
      ],
      [
        "微粒贷",
        "啊"
      ],
      [
        "不能",
        "贷款"
      ],
      [
        "银行卡",
        "里"
      ],
      [
        "无法",
        "满足"
      ],
      [
        "但",
        "我"
      ],
      [
        "建",
        "行"
      ],
      [
        "我",
        "微粒贷"
      ],
      [
        "有",
        "影响吗"
      ],
      [
        "等",
        "了"
      ],
      [
        "能",
        "帮我"
      ],
      [
        "微粒",
        "貸"
      ],
      [
        "银行卡",
        "吗"
      ],
      [
        "输入",
        "多次"
      ],
      [
        "下载",
        "了"
      ],
      [
        "提交",
        "了"
      ],
      [
        "可以取",
        "出来吗"
      ],
      [
        "告诉",
        "我"
      ],
      [
        "为",
        "什"
      ],
      [
        "等",
        "到"
      ],
      [
        "能",
        "改"
      ],
      [
        "怎么",
        "我的"
      ],
      [
        "没有",
        "借款"
      ],
      [
        "利息",
        "多少钱"
      ],
      [
        "我的",
        "还款"
      ],
      [
        "如何",
        "关闭微粒贷"
      ],
      [
        "不能",
        "借"
      ],
      [
        "个月",
        "的"
      ],
      [
        "需要",
        "什么条件"
      ],
      [
        "就",
        "还"
      ],
      [
        "新",
        "卡"
      ],
      [
        "没",
        "了"
      ],
      [
        "没",
        "听到"
      ],
      [
        ",1",
        "."
      ],
      [
        "微信",
        "里面"
      ],
      [
        "不了",
        "额度"
      ],
      [
        "的利息",
        "是"
      ],
      [
        "支持",
        "的银行"
      ],
      [
        "恢复",
        "吗"
      ],
      [
        "上面",
        "显示"
      ],
      [
        "国华",
        "月月"
      ],
      [
        "微立",
        "贷"
      ],
      [
        "合",
        "格"
      ],
      [
        "百",
        "分之"
      ],
      [
        "等",
        "多久"
      ],
      [
        "微信",
        "贷"
      ],
      [
        "需要",
        "多长时间"
      ],
      [
        "众享",
        "太平"
      ],
      [
        "人",
        "脸"
      ],
      [
        "天",
        "还款"
      ],
      [
        "没",
        "钱"
      ],
      [
        "用",
        "不了"
      ],
      [
        "过",
        "不了"
      ]
    ]
  }
}